{
  "version": "1.0",
  "truncation": null,
  "padding": {
    "strategy": "BatchLongest",
    "direction": "Right",
    "pad_to_multiple_of": null,
    "pad_id": 3,
    "pad_type_id": 0,
    "pad_token": "[PAD]"
  },
  "added_tokens": [
    {
      "id": 0,
      "special": true,
      "content": "[UNK]",
      "single_word": false,
      "lstrip": false,
      "rstrip": false,
      "normalized": false
    },
    {
      "id": 1,
      "special": true,
      "content": "[CLS]",
      "single_word": false,
      "lstrip": false,
      "rstrip": false,
      "normalized": false
    },
    {
      "id": 2,
      "special": true,
      "content": "[SEP]",
      "single_word": false,
      "lstrip": false,
      "rstrip": false,
      "normalized": false
    },
    {
      "id": 3,
      "special": true,
      "content": "[PAD]",
      "single_word": false,
      "lstrip": false,
      "rstrip": false,
      "normalized": false
    },
    {
      "id": 4,
      "special": true,
      "content": "[MASK]",
      "single_word": false,
      "lstrip": false,
      "rstrip": false,
      "normalized": false
    }
  ],
  "normalizer": null,
  "pre_tokenizer": {
    "type": "ByteLevel",
    "add_prefix_space": true,
    "trim_offsets": true
  },
  "post_processor": {
    "type": "ByteLevel",
    "add_prefix_space": true,
    "trim_offsets": true
  },
  "decoder": {
    "type": "ByteLevel",
    "add_prefix_space": true,
    "trim_offsets": true
  },
  "model": {
    "type": "BPE",
    "dropout": null,
    "unk_token": "[UNK]",
    "continuing_subword_prefix": null,
    "end_of_word_suffix": null,
    "fuse_unk": false,
    "vocab": {
      "[UNK]": 0,
      "[CLS]": 1,
      "[SEP]": 2,
      "[PAD]": 3,
      "[MASK]": 4,
      "!": 5,
      "\"": 6,
      "#": 7,
      "$": 8,
      "%": 9,
      "&": 10,
      "'": 11,
      "(": 12,
      ")": 13,
      "*": 14,
      "+": 15,
      ",": 16,
      "-": 17,
      ".": 18,
      "/": 19,
      "0": 20,
      "1": 21,
      "2": 22,
      "3": 23,
      "4": 24,
      "5": 25,
      "6": 26,
      "7": 27,
      "8": 28,
      "9": 29,
      ":": 30,
      ";": 31,
      "=": 32,
      "?": 33,
      "@": 34,
      "[": 35,
      "]": 36,
      "^": 37,
      "_": 38,
      "`": 39,
      "a": 40,
      "b": 41,
      "c": 42,
      "d": 43,
      "e": 44,
      "f": 45,
      "g": 46,
      "h": 47,
      "i": 48,
      "j": 49,
      "k": 50,
      "l": 51,
      "m": 52,
      "n": 53,
      "o": 54,
      "p": 55,
      "q": 56,
      "r": 57,
      "s": 58,
      "t": 59,
      "u": 60,
      "v": 61,
      "w": 62,
      "x": 63,
      "y": 64,
      "z": 65,
      "|": 66,
      "~": 67,
      "Ċ": 68,
      "Ġ": 69,
      "Ġt": 70,
      "Ġa": 71,
      "in": 72,
      "on": 73,
      "Ġth": 74,
      "ti": 75,
      "re": 76,
      "er": 77,
      "Ġs": 78,
      "or": 79,
      "Ġthe": 80,
      "Ġp": 81,
      "Ġc": 82,
      "Ġo": 83,
      "en": 84,
      "es": 85,
      "tion": 86,
      "al": 87,
      "is": 88,
      "ed": 89,
      "ing": 90,
      "ro": 91,
      "at": 92,
      "Ġof": 93,
      "Ġf": 94,
      "Ġin": 95,
      "Ġd": 96,
      "Ġw": 97,
      "Ġan": 98,
      "Ġm": 99,
      "an": 100,
      "it": 101,
      "le": 102,
      "ar": 103,
      "Ġb": 104,
      "ic": 105,
      "ation": 106,
      "Ġand": 107,
      "Ġre": 108,
      "ent": 109,
      "Ġto": 110,
      "st": 111,
      "ch": 112,
      "Ġe": 113,
      "Ġpro": 114,
      "om": 115,
      "Ġn": 116,
      "as": 117,
      "im": 118,
      "et": 119,
      "us": 120,
      "ec": 121,
      "Ġfor": 122,
      "ra": 123,
      "ve": 124,
      "ul": 125,
      "Ġh": 126,
      "ly": 127,
      "Ġl": 128,
      "ce": 129,
      "ut": 130,
      "em": 131,
      "Ġis": 132,
      "Ġwe": 133,
      "un": 134,
      "Ġcon": 135,
      "ith": 136,
      "Ġg": 137,
      "Ġcom": 138,
      "ur": 139,
      "od": 140,
      "Ġal": 141,
      "Ġthat": 142,
      "ow": 143,
      "pp": 144,
      "res": 145,
      "Ġon": 146,
      "Ġex": 147,
      "ol": 148,
      "ver": 149,
      "qu": 150,
      "il": 151,
      "el": 152,
      "ble": 153,
      "per": 154,
      "ig": 155,
      "id": 156,
      "Ġus": 157,
      "Ġcomp": 158,
      "Ġst": 159,
      "Ġthis": 160,
      "ct": 161,
      "ment": 162,
      "tic": 163,
      "ri": 164,
      "Ġbe": 165,
      "ess": 166,
      "Ġsy": 167,
      "if": 168,
      "Ġas": 169,
      "Ġint": 170,
      "se": 171,
      "ts": 172,
      "Ġwh": 173,
      "ate": 174,
      "ge": 175,
      "Ġsu": 176,
      "Ġapp": 177,
      "for": 178,
      "Ġwith": 179,
      "Ġare": 180,
      "Ġ\"": 181,
      "Ġv": 182,
      "ity": 183,
      "ms": 184,
      "stem": 185,
      "ot": 186,
      "iz": 187,
      "ations": 188,
      "Ġsystem": 189,
      "imp": 190,
      "si": 191,
      "form": 192,
      "Ġ(": 193,
      "Ġby": 194,
      "ction": 195,
      "ir": 196,
      "ork": 197,
      "am": 198,
      "ach": 199,
      "Ġpar": 200,
      "lo": 201,
      "Ġde": 202,
      "tive": 203,
      "Ġmod": 204,
      ".\"": 205,
      "Ġpa": 206,
      "ere": 207,
      "ab": 208,
      "Ġsp": 209,
      "ect": 210,
      "gor": 211,
      "Ġit": 212,
      "Ġdis": 213,
      "Ġdes": 214,
      "Ġimp": 215,
      "ure": 216,
      "gorith": 217,
      "Ġper": 218,
      "Ġalgorith": 219,
      "Ġr": 220,
      "th": 221,
      "Ġsh": 222,
      "Ġun": 223,
      "Ġres": 224,
      "resent": 225,
      "Ġcan": 226,
      "ew": 227,
      "rib": 228,
      "tim": 229,
      "Ġma": 230,
      "Ġor": 231,
      "Ġdat": 232,
      "um": 233,
      "cess": 234,
      "og": 235,
      "Ġse": 236,
      "ff": 237,
      "Ġle": 238,
      "etw": 239,
      "lic": 240,
      "Ġmodel": 241,
      "oc": 242,
      "ance": 243,
      "ort": 244,
      "ech": 245,
      "ram": 246,
      "Ġcont": 247,
      "ich": 248,
      "ally": 249,
      "ad": 250,
      "Ġmo": 251,
      "Ġproble": 252,
      "ine": 253,
      "Ġpaper": 254,
      "Ġen": 255,
      "ers": 256,
      "ru": 257,
      "ign": 258,
      "ant": 259,
      "ac": 260,
      "Ġwhich": 261,
      "ain": 262,
      "Ġad": 263,
      "Ġk": 264,
      "age": 265,
      "rom": 266,
      "Ġprog": 267,
      "Ġcomput": 268,
      "are": 269,
      "os": 270,
      "able": 271,
      "ased": 272,
      "Ġfrom": 273,
      "ies": 274,
      "and": 275,
      "Ġinter": 276,
      "du": 277,
      "Ġmet": 278,
      "ated": 279,
      "Ġrep": 280,
      "Ġch": 281,
      "Ġappro": 282,
      "Ġar": 283,
      "Ġac": 284,
      "ag": 285,
      "Ġdata": 286,
      "Ġat": 287,
      "Ġperform": 288,
      "Ġob": 289,
      "Ġgen": 290,
      "ous": 291,
      "der": 292,
      "ning": 293,
      "etwork": 294,
      "Ġcl": 295,
      "igh": 296,
      "Ġour": 297,
      "Ġpresent": 298,
      "Ġnetwork": 299,
      "Ġ1": 300,
      "Ġco": 301,
      "arch": 302,
      "hod": 303,
      "echn": 304,
      "Ġmul": 305,
      "ay": 306,
      "ran": 307,
      "Ġtechn": 308,
      "Ġmethod": 309,
      "ution": 310,
      "Ġalgorithm": 311,
      "di": 312,
      "Ġresul": 313,
      "vid": 314,
      "Ġqu": 315,
      "ter": 316,
      "Ġexp": 317,
      "Ġapplic": 318,
      "lement": 319,
      "Ġsystems": 320,
      "Ġgener": 321,
      "Ġpre": 322,
      "nt": 323,
      "ical": 324,
      "sion": 325,
      "ific": 326,
      "ang": 327,
      "und": 328,
      "ence": 329,
      "Ġprocess": 330,
      "end": 331,
      "ap": 332,
      "ient": 333,
      "Ġtim": 334,
      "ass": 335,
      "Ġthese": 336,
      "Ġpo": 337,
      "ory": 338,
      "Ġeff": 339,
      "ave": 340,
      "Ġshow": 341,
      "ud": 342,
      "ase": 343,
      "Ġso": 344,
      "Ġro": 345,
      "Ġperformance": 346,
      "Ġproblem": 347,
      "Ġlear": 348,
      "ion": 349,
      "Ġdist": 350,
      "ire": 351,
      "Ġusing": 352,
      "Ġinc": 353,
      "est": 354,
      "fere": 355,
      "ruct": 356,
      "ces": 357,
      "ari": 358,
      "Ġdesc": 359,
      "sis": 360,
      "Ġprogram": 361,
      "Ġpl": 362,
      "Ġall": 363,
      "all": 364,
      "Ġab": 365,
      "Ġtra": 366,
      "Ġconst": 367,
      "Ġapproach": 368,
      "yp": 369,
      "Ġman": 370,
      "Ġimplement": 371,
      "Ġuse": 372,
      "Ġop": 373,
      "vi": 374,
      "ard": 375,
      "Ġne": 376,
      "Ġdesign": 377,
      "Ġrec": 378,
      "ary": 379,
      "act": 380,
      "ven": 381,
      "Ġmulti": 382,
      "Ġhave": 383,
      "ization": 384,
      "ph": 385,
      "Ġcomm": 386,
      "Ġprovid": 387,
      "Ġtran": 388,
      "ility": 389,
      "up": 390,
      "Ġanal": 391,
      "Ġsc": 392,
      "Ġnot": 393,
      "ace": 394,
      "Ġsuch": 395,
      "iqu": 396,
      "ures": 397,
      "val": 398,
      "Ġsch": 399,
      "ors": 400,
      "formation": 401,
      "Ġtime": 402,
      "Ġnew": 403,
      "so": 404,
      "Ġanaly": 405,
      "ents": 406,
      "Ġalgorithms": 407,
      "Ġdif": 408,
      "Ġhas": 409,
      "Ġdisk": 410,
      "Ġdescrib": 411,
      "ating": 412,
      "ust": 413,
      "ial": 414,
      "ip": 415,
      "Ġhow": 416,
      "alle": 417,
      "Ġtrans": 418,
      "Ġobj": 419,
      "ex": 420,
      "Ġset": 421,
      "Ġresults": 422,
      "Ġdistrib": 423,
      "allel": 424,
      "int": 425,
      "Ġover": 426,
      "Ġused": 427,
      "now": 428,
      "ual": 429,
      "Ġclass": 430,
      "Ġtechniqu": 431,
      "Ġwork": 432,
      "Ġspec": 433,
      "ative": 434,
      "Ġsim": 435,
      "unction": 436,
      "Ġlearning": 437,
      "Ġrequ": 438,
      "Ġsupp": 439,
      "Ġsol": 440,
      "Ġrel": 441,
      "ll": 442,
      "Ġoptim": 443,
      "angu": 444,
      "Ġinformation": 445,
      "oth": 446,
      "Ġtw": 447,
      "Ġparallel": 448,
      "Ġver": 449,
      "ree": 450,
      "ments": 451,
      "ther": 452,
      "enti": 453,
      "ting": 454,
      "ates": 455,
      "tions": 456,
      "Ġalso": 457,
      "ves": 458,
      "Ġbased": 459,
      "ile": 460,
      "velo": 461,
      "Ġtwo": 462,
      "Ġlangu": 463,
      "Ġser": 464,
      "ide": 465,
      "lex": 466,
      "ug": 467,
      "Ġnum": 468,
      "ber": 469,
      "Ġfunction": 470,
      "ome": 471,
      "vel": 472,
      "Ġform": 473,
      "Ġno": 474,
      "Ġvari": 475,
      "ill": 476,
      "Ġext": 477,
      "ound": 478,
      "Ġag": 479,
      "cy": 480,
      "ose": 481,
      "Ġdevelo": 482,
      "Ġcontro": 483,
      "ware": 484,
      "Ġaut": 485,
      "Ġexper": 486,
      "ore": 487,
      "Ġj": 488,
      "icient": 489,
      "ties": 490,
      "Ġdet": 491,
      "ular": 492,
      "rate": 493,
      "Ġrepresent": 494,
      "les": 495,
      "ple": 496,
      "Ġdevelop": 497,
      "Ġprot": 498,
      "Ġdec": 499,
      "ail": 500,
      "Ġhigh": 501,
      "ving": 502,
      "out": 503,
      "Ġprop": 504,
      "Ġone": 505,
      "Ġapplications": 506,
      "de": 507,
      "Ġits": 508,
      "Ġsub": 509,
      "Ġknow": 510,
      "Ġmore": 511,
      "based": 512,
      "uted": 513,
      "Ġsupport": 514,
      "Ġunder": 515,
      "ck": 516,
      "tical": 517,
      "istic": 518,
      "Ġfin": 519,
      "Ġreal": 520,
      "Ġgi": 521,
      "ational": 522,
      "ages": 523,
      "ced": 524,
      "yn": 525,
      "Ġfe": 526,
      "Ġproblems": 527,
      "Ġplan": 528,
      "Ġdiffere": 529,
      "Ġgeneral": 530,
      "raph": 531,
      "ects": 532,
      "Ġass": 533,
      "led": 534,
      "ast": 535,
      "Ġoper": 536,
      "Ġstruct": 537,
      "ft": 538,
      "ke": 539,
      "ugh": 540,
      "ved": 541,
      "ability": 542,
      "Ġmem": 543,
      "ati": 544,
      "Ġbeen": 545,
      "Ġsome": 546,
      "Ġ[": 547,
      "'s": 548,
      "Ġsimul": 549,
      "Ġnumber": 550,
      "Ġtyp": 551,
      "search": 552,
      "put": 553,
      "Ġdistributed": 554,
      "Ġcommun": 555,
      "ric": 556,
      "Ġme": 557,
      "ize": 558,
      "Ġcontrol": 559,
      "Ġother": 560,
      "Ġresearch": 561,
      "Ġthan": 562,
      "een": 563,
      "pend": 564,
      "ask": 565,
      "Ġlog": 566,
      "Ġarch": 567,
      "Ġanalysis": 568,
      "time": 569,
      "Ġcor": 570,
      "olog": 571,
      "fic": 572,
      "itect": 573,
      "ract": 574,
      "etween": 575,
      "Ġbetween": 576,
      "ie": 577,
      "ision": 578,
      "ied": 579,
      "ron": 580,
      "Ġ2": 581,
      "Ġim": 582,
      "Ġlar": 583,
      "pt": 584,
      "urre": 585,
      "ural": 586,
      "Ġloc": 587,
      "Ġarchitect": 588,
      "Ġsimp": 589,
      "erm": 590,
      "Ġvi": 591,
      "Ġexam": 592,
      "Ġ19": 593,
      "Ġtask": 594,
      "Ġeach": 595,
      "xim": 596,
      "dition": 597,
      "Ġcommunic": 598,
      "Ġtechniques": 599,
      "ized": 600,
      "ding": 601,
      "atic": 602,
      "vir": 603,
      "ress": 604,
      "Ġcons": 605,
      "Ġefficient": 606,
      "Ġmethods": 607,
      "Ġlanguage": 608,
      "viron": 609,
      "Ġmat": 610,
      "Ġcomplex": 611,
      "Ġmodels": 612,
      "fin": 613,
      "ue": 614,
      "Ġenviron": 615,
      "Ġrequire": 616,
      "Ġwhen": 617,
      "Ġem": 618,
      "our": 619,
      "vers": 620,
      "Ġtheir": 621,
      "dic": 622,
      "Ġboth": 623,
      ").": 624,
      "Ġexperim": 625,
      "Ġi": 626,
      "ynam": 627,
      "ite": 628,
      "eg": 629,
      "ming": 630,
      "Ġsec": 631,
      "Ġimpro": 632,
      "Ġnon": 633,
      "ification": 634,
      "Ġmin": 635,
      "ctions": 636,
      "ack": 637,
      "Ġmemory": 638,
      "Ġgo": 639,
      "Ġnetworks": 640,
      "ext": 641,
      "Ġ\"\"": 642,
      "Ġdifferent": 643,
      "ftware": 644,
      "tain": 645,
      "ocol": 646,
      "ds": 647,
      "Ġinto": 648,
      "Ġpat": 649,
      "Ġquer": 650,
      "low": 651,
      "ynamic": 652,
      "rams": 653,
      "pro": 654,
      "irst": 655,
      "Ġallow": 656,
      "Ġcol": 657,
      "\"\"": 658,
      "ledge": 659,
      "Ġprotocol": 660,
      "Ġlarge": 661,
      "Ġacc": 662,
      "valu": 663,
      "lud": 664,
      "ases": 665,
      "Ġdom": 666,
      "ency": 667,
      "Ġsoftware": 668,
      "tern": 669,
      "Ġobject": 670,
      "onst": 671,
      "sp": 672,
      "Ġgraph": 673,
      "Ġconstra": 674,
      "Ġimplementation": 675,
      "Ġfram": 676,
      "Ġconc": 677,
      "vic": 678,
      "Ġfirst": 679,
      "Ġdynamic": 680,
      "Ġsign": 681,
      "Ġprogramming": 682,
      "Ġdatab": 683,
      "Ġmach": 684,
      "ful": 685,
      "Ġwell": 686,
      "Ġrob": 687,
      "ib": 688,
      "Ġstud": 689,
      "Ġapplication": 690,
      "te": 691,
      "Ġknowledge": 692,
      "Ġabst": 693,
      "ode": 694,
      "ints": 695,
      "par": 696,
      "urrent": 697,
      "Ġschem": 698,
      "aus": 699,
      "Ġbut": 700,
      "Ġprograms": 701,
      "Ġcommunication": 702,
      "op": 703,
      "Ġbound": 704,
      "Ġdescribe": 705,
      "Ġout": 706,
      "Ġdomain": 707,
      "ight": 708,
      "ist": 709,
      "ension": 710,
      "Ġdem": 711,
      "Ġmany": 712,
      "Ġdo": 713,
      "ier": 714,
      "Ġautom": 715,
      "Ġmay": 716,
      "ared": 717,
      "its": 718,
      "Ġevalu": 719,
      "Ġexec": 720,
      "Ġup": 721,
      "Ġredu": 722,
      "Ġsched": 723,
      "Ġfeat": 724,
      "Ġonly": 725,
      "Ġany": 726,
      "inear": 727,
      "ines": 728,
      "Ġ199": 729,
      "vol": 730,
      "Ġwor": 731,
      "ong": 732,
      "),": 733,
      "Ġuser": 734,
      "Ġsolution": 735,
      "Ġpartic": 736,
      "Ġsearch": 737,
      "Ġsever": 738,
      "Ġbu": 739,
      "Ġinteg": 740,
      "Ġwhere": 741,
      "Ġseveral": 742,
      "ha": 743,
      "Ġprovide": 744,
      "Ġcomb": 745,
      "feren": 746,
      "ix": 747,
      "Ġes": 748,
      "ell": 749,
      "Ġsm": 750,
      "ective": 751,
      "Ġinclud": 752,
      "Ġy": 753,
      "Ġcall": 754,
      "Ġwill": 755,
      "ak": 756,
      "Ġorder": 757,
      "Ġreg": 758,
      "Ġsci": 759,
      "Ġthey": 760,
      "ise": 761,
      "Ġwas": 762,
      "Ġreport": 763,
      "Ġinst": 764,
      "Ġam": 765,
      "Ġconsid": 766,
      "Ġdiskus": 767,
      "Ġph": 768,
      "Ġcase": 769,
      "00": 770,
      "Ġpr": 771,
      "Ġval": 772,
      "Ġincre": 773,
      "ism": 774,
      "ework": 775,
      "Ġcomputer": 776,
      "Ġframework": 777,
      "ues": 778,
      "Ġspace": 779,
      "Ġgiven": 780,
      "rodu": 781,
      "Ġstructure": 782,
      "Ġview": 783,
      "ection": 784,
      "Ġtool": 785,
      "Ġschedul": 786,
      "rough": 787,
      "Ġthere": 788,
      "her": 789,
      "Ġu": 790,
      "Ġsequ": 791,
      "Ġsam": 792,
      "Ġ3": 793,
      "Ġrun": 794,
      "sive": 795,
      "Ġlo": 796,
      "havi": 797,
      "Ġra": 798,
      "ality": 799,
      "Ġmost": 800,
      "Ġspe": 801,
      "Ġthen": 802,
      "Ġsimple": 803,
      "echan": 804,
      "ition": 805,
      "uld": 806,
      "Ġsem": 807,
      "sible": 808,
      "Ġbehavi": 809,
      "Ġpos": 810,
      "con": 811,
      "Ġmechan": 812,
      "ower": 813,
      "ology": 814,
      "ining": 815,
      "Ġav": 816,
      "Ġatt": 817,
      "pl": 818,
      "atis": 819,
      "Ġarchitecture": 820,
      "lect": 821,
      "Ġthrough": 822,
      "Ġproper": 823,
      "Ġadd": 824,
      "Ġneed": 825,
      "Ġenvironment": 826,
      "Ġintrodu": 827,
      "Ġminim": 828,
      "Ġdemonst": 829,
      "Ġpredic": 830,
      "Ġdiskuss": 831,
      "ond": 832,
      "ult": 833,
      "Ġach": 834,
      "Ġparticular": 835,
      "Ġif": 836,
      "por": 837,
      "ement": 838,
      "Ġachie": 839,
      "ason": 840,
      "Ġservic": 841,
      "Ġadap": 842,
      "Ġgro": 843,
      "ogn": 844,
      "osed": 845,
      "ia": 846,
      "ark": 847,
      "Ġ:": 848,
      "ever": 849,
      "ser": 850,
      "ens": 851,
      "Ġsyn": 852,
      "Ġimport": 853,
      "po": 854,
      "Ġaccess": 855,
      "Ġreason": 856,
      "Ġadv": 857,
      "Ġpoly": 858,
      "Ġequ": 859,
      "Ġchar": 860,
      "Ġdeterm": 861,
      "tial": 862,
      "Ġwhile": 863,
      "ish": 864,
      "cept": 865,
      "amet": 866,
      "ering": 867,
      "Ġcap": 868,
      "Ġbec": 869,
      "rateg": 870,
      "ential": 871,
      "Ġintegr": 872,
      "sist": 873,
      "Ġprodu": 874,
      "Ġstudy": 875,
      "ness": 876,
      "ination": 877,
      "ene": 878,
      "ator": 879,
      "Ġmeas": 880,
      "Ġlevel": 881,
      "Ġer": 882,
      "vious": 883,
      "Ġabout": 884,
      "Ġlogic": 885,
      "of": 886,
      "ules": 887,
      "izing": 888,
      "Ġstrateg": 889,
      "Ġobjects": 890,
      "Ġhowever": 891,
      "Ġdire": 892,
      "Ġrout": 893,
      "Ġabstract": 894,
      "Ġid": 895,
      "Ġapproxim": 896,
      "antic": 897,
      "Ġdefin": 898,
      "Ġpart": 899,
      "Ġprob": 900,
      "Ġdel": 901,
      "face": 902,
      "ted": 903,
      "Ġcode": 904,
      "Ġmultiple": 905,
      "Ġstate": 906,
      "ined": 907,
      "com": 908,
      "Ġimprove": 909,
      "Ġcharact": 910,
      "uring": 911,
      "Ġcompon": 912,
      "Ġgu": 913,
      "Ġcost": 914,
      "Ġdatabase": 915,
      "Ġtest": 916,
      "Ġvis": 917,
      "ead": 918,
      "Ġcomputation": 919,
      "Ġestim": 920,
      "Ġcompil": 921,
      "Ġmess": 922,
      "sition": 923,
      "Ġcharacter": 924,
      "Ġsemantic": 925,
      "ange": 926,
      "Ġexplo": 927,
      "Ġprovides": 928,
      "Ġresour": 929,
      "Ġtechnique": 930,
      "Ġdecision": 931,
      "Ġquery": 932,
      "Ġcurrent": 933,
      "Ġparamet": 934,
      "Ġbehavior": 935,
      "depend": 936,
      "over": 937,
      "ities": 938,
      "Ġlinear": 939,
      "Ġexperiment": 940,
      "Ġbuil": 941,
      "chron": 942,
      "Ġdepend": 943,
      "the": 944,
      "ould": 945,
      "rect": 946,
      "Ġaddress": 947,
      "Ġcach": 948,
      "Ġprevious": 949,
      "ten": 950,
      "Ġmachine": 951,
      "Ġresp": 952,
      "Ġcomplexity": 953,
      "Ġrepresentation": 954,
      "Ġrecogn": 955,
      "Ġcomputing": 956,
      "oun": 957,
      "Ġbas": 958,
      "Ġerr": 959,
      "lection": 960,
      "ditional": 961,
      "Ġke": 962,
      "Ġsignific": 963,
      "Ġimage": 964,
      "ference": 965,
      "olic": 966,
      "Ġhand": 967,
      "Ġsimulation": 968,
      "Ġsing": 969,
      "Ġconn": 970,
      "Ġsur": 971,
      "Ġexecution": 972,
      "Ġmanag": 973,
      "ctive": 974,
      "Ġpresented": 975,
      "Ġfunctions": 976,
      "iel": 977,
      "Ġintern": 978,
      "ivers": 979,
      "Ġlearn": 980,
      "Ġtheory": 981,
      "Ġimportant": 982,
      "Ġthree": 983,
      "Ġconstraints": 984,
      "Ġspecific": 985,
      "Ġscal": 986,
      "Ġfeatures": 987,
      "Ġscheduling": 988,
      "ences": 989,
      "Ġiss": 990,
      "ered": 991,
      "ify": 992,
      "one": 993,
      "king": 994,
      "ps": 995,
      "Ġlocal": 996,
      "Ġfact": 997,
      "Ġexis": 998,
      "lock": 999,
      "Ġagents": 1000,
      "Ġsignificant": 1001,
      "ys": 1002,
      "Ġhard": 1003,
      "Ġinput": 1004,
      "level": 1005,
      "Ġsmall": 1006,
      "Ġconsider": 1007,
      "ges": 1008,
      "eri": 1009,
      "Ġproposed": 1010,
      ".,": 1011,
      "ption": 1012,
      "ub": 1013,
      "Ġtre": 1014,
      "Ġpossible": 1015,
      "Ġconstruct": 1016,
      "ject": 1017,
      "Ġextend": 1018,
      "Ġplanning": 1019,
      "Ġsingle": 1020,
      "process": 1021,
      "ld": 1022,
      "Ġprocessing": 1023,
      "Ġgoal": 1024,
      "Ġoptimal": 1025,
      "Ġwithin": 1026,
      "rit": 1027,
      "aces": 1028,
      "Ġfa": 1029,
      "Ġfl": 1030,
      "ike": 1031,
      "imension": 1032,
      "Ġscience": 1033,
      "Ġsour": 1034,
      "Ġvery": 1035,
      "Ġobtain": 1036,
      "Ġdescribes": 1037,
      "ward": 1038,
      "Ġdeveloped": 1039,
      "Ġanalyz": 1040,
      "abil": 1041,
      "dependent": 1042,
      "Ġpattern": 1043,
      "ule": 1044,
      "Ġnat": 1045,
      "rac": 1046,
      "Ġformal": 1047,
      "ierarch": 1048,
      "Ġway": 1049,
      "Ġcomputational": 1050,
      "pre": 1051,
      "Ġuses": 1052,
      "Ġidenti": 1053,
      "Ġlanguages": 1054,
      "fer": 1055,
      "Ġwithout": 1056,
      "Ġrules": 1057,
      "Ġresult": 1058,
      "Ġfound": 1059,
      "Ġlim": 1060,
      "Ġproperties": 1061,
      "Ġoptimization": 1062,
      "ible": 1063,
      "line": 1064,
      "Ġcalled": 1065,
      "andom": 1066,
      "ected": 1067,
      "ear": 1068,
      "Ġallows": 1069,
      "Ġret": 1070,
      "cing": 1071,
      "Ġconf": 1072,
      "Ġpresents": 1073,
      "ples": 1074,
      "Ġmeasure": 1075,
      "ern": 1076,
      "Ġgr": 1077,
      "ruction": 1078,
      "Ġversion": 1079,
      "ified": 1080,
      "Ġdistribution": 1081,
      "Ġimplemented": 1082,
      "Ġassum": 1083,
      "Ġshared": 1084,
      "Ġhierarch": 1085,
      "rie": 1086,
      "Ġpropose": 1087,
      "Ġemp": 1088,
      "Ġavail": 1089,
      "Ġtype": 1090,
      "Ġsize": 1091,
      "Ġmob": 1092,
      "ings": 1093,
      "Ġter": 1094,
      "ables": 1095,
      "Ġderi": 1096,
      "Ġrem": 1097,
      "Ġeng": 1098,
      "ulation": 1099,
      "Ġsecond": 1100,
      "Ġautomatic": 1101,
      "Ġdirect": 1102,
      "Ġscheme": 1103,
      "Ġexisting": 1104,
      "Ġunivers": 1105,
      "til": 1106,
      "ching": 1107,
      "Ġstand": 1108,
      "Ġexperiments": 1109,
      "tiv": 1110,
      "Ġneural": 1111,
      "Ġpoint": 1112,
      "Ġtasks": 1113,
      "Ġhe": 1114,
      "Ġlat": 1115,
      "lim": 1116,
      "ause": 1117,
      "bal": 1118,
      "orm": 1119,
      "Ġcomple": 1120,
      "ss": 1121,
      "Ġfast": 1122,
      "to": 1123,
      "mis": 1124,
      "Ġvisual": 1125,
      "Ġdi": 1126,
      "Ġgroup": 1127,
      "Ġmust": 1128,
      "get": 1129,
      "ost": 1130,
      "Ġprac": 1131,
      "av": 1132,
      "hh": 1133,
      "Ġprotocols": 1134,
      "fy": 1135,
      "Ġsame": 1136,
      "Ġrandom": 1137,
      "action": 1138,
      "ocu": 1139,
      "Ġste": 1140,
      "Ġtechnical": 1141,
      "Ġthem": 1142,
      "lied": 1143,
      "Ġtheore": 1144,
      "Ġtree": 1145,
      "Ġpath": 1146,
      "Ġwide": 1147,
      "Ġcompar": 1148,
      "Ġproof": 1149,
      "Ġdemonstrate": 1150,
      "Ġrecent": 1151,
      "Ġmon": 1152,
      "Ġlimit": 1153,
      "Ġindu": 1154,
      "ilar": 1155,
      "Ġstandard": 1156,
      "rary": 1157,
      "Ġglo": 1158,
      "Ġmodeling": 1159,
      "Ġapproaches": 1160,
      "Ġdocu": 1161,
      "Ġkey": 1162,
      "mm": 1163,
      "Ġdevelopment": 1164,
      "ty": 1165,
      "Ġpack": 1166,
      "cc": 1167,
      "iented": 1168,
      "irc": 1169,
      "uch": 1170,
      "Ġagent": 1171,
      "tig": 1172,
      "ety": 1173,
      "Ġcontext": 1174,
      "Ġpower": 1175,
      "active": 1176,
      "ough": 1177,
      "Ġexamples": 1178,
      "ute": 1179,
      "Ġeffective": 1180,
      "Ġreasoning": 1181,
      "Ġmanagement": 1182,
      "Ġerror": 1183,
      "Ġtext": 1184,
      "Ġeven": 1185,
      "ically": 1186,
      "ura": 1187,
      "Ġmobile": 1188,
      "Ġenc": 1189,
      "Ġpolic": 1190,
      "ets": 1191,
      "Ġrecognition": 1192,
      "Ġill": 1193,
      "abor": 1194,
      "Ġcre": 1195,
      "Ġparti": 1196,
      "lying": 1197,
      "Ġterms": 1198,
      "Ġtem": 1199,
      "Ġvarious": 1200,
      "Ġthose": 1201,
      "Ġcommon": 1202,
      "ord": 1203,
      "ression": 1204,
      "Ġevol": 1205,
      "ertain": 1206,
      "sc": 1207,
      "Ġcorrect": 1208,
      "Ġtop": 1209,
      "Ġtypes": 1210,
      "Ġevaluation": 1211,
      "edia": 1212,
      "Ġfur": 1213,
      "Ġsupported": 1214,
      "Ġavailable": 1215,
      "Ġqueries": 1216,
      "Ġservice": 1217,
      "Ġdef": 1218,
      "odes": 1219,
      "ry": 1220,
      "Ġexample": 1221,
      "licit": 1222,
      "idth": 1223,
      "Ġinterface": 1224,
      "Ġvide": 1225,
      "vestig": 1226,
      "Ġknown": 1227,
      "Ġsimilar": 1228,
      "erest": 1229,
      "Ġexpl": 1230,
      "Ġcontain": 1231,
      "Ġauth": 1232,
      "isms": 1233,
      "Ġlow": 1234,
      "br": 1235,
      "Ġbet": 1236,
      "omial": 1237,
      "ount": 1238,
      "ffic": 1239,
      "Ġ9": 1240,
      "read": 1241,
      "Ġrobot": 1242,
      "Ġstructures": 1243,
      "Ġinvestig": 1244,
      "Ġspeed": 1245,
      "Ġdelay": 1246,
      "Ġsemantics": 1247,
      "Ġchang": 1248,
      "Ġuseful": 1249,
      "anti": 1250,
      "Ġbro": 1251,
      "Ġglobal": 1252,
      "inary": 1253,
      "Ġconsist": 1254,
      "Ġpri": 1255,
      "Ġfurther": 1256,
      "inu": 1257,
      "Ġrest": 1258,
      "Ġuniversity": 1259,
      "Ġbetter": 1260,
      "etic": 1261,
      "Ġexperimental": 1262,
      "elf": 1263,
      "Ġoperations": 1264,
      "ators": 1265,
      "Ġdiffic": 1266,
      "Ġissues": 1267,
      "Ġinterest": 1268,
      "Ġrequirements": 1269,
      "Ġvideo": 1270,
      "hip": 1271,
      "Ġproced": 1272,
      "ive": 1273,
      "raction": 1274,
      "ecess": 1275,
      "Ġprim": 1276,
      "oci": 1277,
      "Ġstatis": 1278,
      "ink": 1279,
      "Ġchec": 1280,
      "Ġsets": 1281,
      "Ġutil": 1282,
      "Ġmaxim": 1283,
      "ante": 1284,
      "Ġed": 1285,
      "Ġfoc": 1286,
      "Ġsynchron": 1287,
      "nomial": 1288,
      "Ġbecause": 1289,
      "arante": 1290,
      "Ġhy": 1291,
      "oriented": 1292,
      "Ġcomponents": 1293,
      "cl": 1294,
      "head": 1295,
      "Ġcirc": 1296,
      "fficient": 1297,
      "Ġcache": 1298,
      "Ġmaint": 1299,
      "Ġshown": 1300,
      "uman": 1301,
      "Ġrelations": 1302,
      "Ġenvironments": 1303,
      "Ġengine": 1304,
      "lish": 1305,
      "Ġflow": 1306,
      "Ġjo": 1307,
      "Ġapplied": 1308,
      "Ġmessage": 1309,
      "Ġshould": 1310,
      "Ġincluding": 1311,
      "Ġmake": 1312,
      "ind": 1313,
      "ian": 1314,
      "Ġcal": 1315,
      "Ġhardware": 1316,
      "loc": 1317,
      "Ġtools": 1318,
      "stand": 1319,
      "Ġrouting": 1320,
      "here": 1321,
      "Ġbest": 1322,
      "Ġguarante": 1323,
      "Ġvir": 1324,
      "Ġrate": 1325,
      "Ġmean": 1326,
      "Ġfocus": 1327,
      "Ġful": 1328,
      "Ġdoes": 1329,
      "Ġcent": 1330,
      "red": 1331,
      "gan": 1332,
      "Ġpolynomial": 1333,
      "Ġobser": 1334,
      "Ġbo": 1335,
      "ires": 1336,
      "Ġge": 1337,
      "Ġspecial": 1338,
      "Ġinvol": 1339,
      "pping": 1340,
      "Ġclust": 1341,
      "Ġfac": 1342,
      "inc": 1343,
      "ually": 1344,
      "eng": 1345,
      "Ġadvant": 1346,
      "Ġfail": 1347,
      "Ġusers": 1348,
      "Ġhuman": 1349,
      "Ġclasses": 1350,
      "Ġconcept": 1351,
      "mental": 1352,
      "ann": 1353,
      "Ġlay": 1354,
      "Ġgive": 1355,
      "bit": 1356,
      "Ġdetail": 1357,
      "Ġtraffic": 1358,
      "Ġthus": 1359,
      "width": 1360,
      "Ġoften": 1361,
      "Ġconver": 1362,
      "ately": 1363,
      "ling": 1364,
      "Ġsit": 1365,
      "Ġextension": 1366,
      "Ġstrategies": 1367,
      "ions": 1368,
      "Ġback": 1369,
      "Ġprocesses": 1370,
      "Ġretrie": 1371,
      "Ġindependent": 1372,
      "Ġsolutions": 1373,
      "Ġmuch": 1374,
      "Ġclo": 1375,
      "Ġweb": 1376,
      "Ġrequired": 1377,
      "Ġmark": 1378,
      "Ġini": 1379,
      "ner": 1380,
      "ances": 1381,
      "Ġdifficult": 1382,
      "Ġmechanisms": 1383,
      "Ġdescri": 1384,
      "Ġvirt": 1385,
      "Ġprocessors": 1386,
      "Ġfol": 1387,
      "ptions": 1388,
      "Ġduring": 1389,
      "Ġcomplete": 1390,
      "pts": 1391,
      "Ġstor": 1392,
      "Ġsuc": 1393,
      "Ġaddition": 1394,
      "ross": 1395,
      "Ġflex": 1396,
      "Ġtransform": 1397,
      "Ġeas": 1398,
      "Ġcompiler": 1399,
      "Ġsubs": 1400,
      "Ġdatabases": 1401,
      "Ġgrant": 1402,
      "Ġindi": 1403,
      "andwidth": 1404,
      "izes": 1405,
      "pri": 1406,
      "Ġsug": 1407,
      "Ġnecess": 1408,
      "imensional": 1409,
      "Ġtraining": 1410,
      "Ġparameters": 1411,
      "Ġmechanism": 1412,
      "Ġpres": 1413,
      "Ġcases": 1414,
      "Ġcontinu": 1415,
      "Ġinterpre": 1416,
      "Ġassoci": 1417,
      "Ġspecification": 1418,
      "Ġocc": 1419,
      "Ġinternet": 1420,
      "tation": 1421,
      "Ġamong": 1422,
      "Ġbel": 1423,
      "Ġdescribed": 1424,
      "Ġfile": 1425,
      "ensive": 1426,
      "Ġide": 1427,
      "ellig": 1428,
      "Ġimages": 1429,
      "Ġbounds": 1430,
      "Ġ4": 1431,
      "izations": 1432,
      "mission": 1433,
      "resp": 1434,
      "Ġrange": 1435,
      "oper": 1436,
      "Ġdesigned": 1437,
      "Ġev": 1438,
      "otyp": 1439,
      "istics": 1440,
      "Ġupd": 1441,
      "ense": 1442,
      "Ġtempor": 1443,
      "Ġworld": 1444,
      "Ġdeg": 1445,
      "Ġcop": 1446,
      "Ġmultic": 1447,
      "Ġoverhead": 1448,
      "Ġwere": 1449,
      "ixed": 1450,
      "Ġaltern": 1451,
      "Ġsatis": 1452,
      "Ġgood": 1453,
      "Ġresource": 1454,
      "ler": 1455,
      "forms": 1456,
      "Ġoperating": 1457,
      "Ġvirtual": 1458,
      "Ġsuccess": 1459,
      "].": 1460,
      "ame": 1461,
      "Ġcho": 1462,
      "Ġtechnology": 1463,
      "Ġins": 1464,
      "Ġfinally": 1465,
      "Ġload": 1466,
      "Ġq": 1467,
      "Ġsin": 1468,
      "omet": 1469,
      "Ġact": 1470,
      "Ġpot": 1471,
      "Ġfind": 1472,
      "Ġmachines": 1473,
      "ok": 1474,
      "Ġserver": 1475,
      "Ġclassification": 1476,
      "Ġbandwidth": 1477,
      "Ġdomains": 1478,
      "way": 1479,
      "Ġnatural": 1480,
      "Ġintellig": 1481,
      "als": 1482,
      "Ġlike": 1483,
      "Ġsuper": 1484,
      "Ġillust": 1485,
      "Ġfollow": 1486,
      "Ġcircu": 1487,
      "ily": 1488,
      "Ġintroduce": 1489,
      "know": 1490,
      "Ġunderstand": 1491,
      "Ġmain": 1492,
      "Ġrequires": 1493,
      "Ġvariety": 1494,
      "Ġfeature": 1495,
      "lev": 1496,
      "Ġclient": 1497,
      "ditions": 1498,
      "log": 1499,
      "Ġgraphs": 1500,
      "Ġbeing": 1501,
      "Ġmotion": 1502,
      "Ġprocessor": 1503,
      "ield": 1504,
      "ither": 1505,
      "Ġdifferen": 1506,
      "Ġlead": 1507,
      "Ġfinite": 1508,
      "ficial": 1509,
      "ging": 1510,
      "Ġadaptive": 1511,
      "Ġblock": 1512,
      "Ġprovided": 1513,
      "Ġcontroll": 1514,
      "Ġx": 1515,
      "Ġstorage": 1516,
      "orts": 1517,
      "Ġlit": 1518,
      "urp": 1519,
      "Ġ0": 1520,
      "Ġtrees": 1521,
      "Ġlower": 1522,
      "Ġresources": 1523,
      "Ġcorresp": 1524,
      "Ġsince": 1525,
      "oring": 1526,
      "Ġarchitectures": 1527,
      "mark": 1528,
      "Ġpatterns": 1529,
      "lear": 1530,
      "Ġquality": 1531,
      "Ġsolving": 1532,
      "faces": 1533,
      "Ġtraditional": 1534,
      "Ġnovel": 1535,
      "Ġprototyp": 1536,
      "Ġprobabil": 1537,
      "Ġlong": 1538,
      "Ġarbit": 1539,
      "ov": 1540,
      "view": 1541,
      "Ġconstraint": 1542,
      "Ġachieve": 1543,
      "Ġlib": 1544,
      "Ġrule": 1545,
      "af": 1546,
      "Ġcar": 1547,
      "cs": 1548,
      "Ġservices": 1549,
      "Ġrelative": 1550,
      "Ġfil": 1551,
      "Ġiter": 1552,
      "asing": 1553,
      "Ġtransl": 1554,
      "ather": 1555,
      "Ġsw": 1556,
      "Ġstre": 1557,
      "Ġprior": 1558,
      "Ġgre": 1559,
      "Ġformul": 1560,
      "Ġ.": 1561,
      "Ġte": 1562,
      "Ġable": 1563,
      "very": 1564,
      "Ġbasic": 1565,
      "Ġdue": 1566,
      "uracy": 1567,
      "Ġlink": 1568,
      "Ġarg": 1569,
      "Ġschemes": 1570,
      "inal": 1571,
      "dimensional": 1572,
      "ici": 1573,
      "Ġrespon": 1574,
      "oid": 1575,
      "Ġz": 1576,
      "Ġexploit": 1577,
      "overy": 1578,
      "Ġpractical": 1579,
      "Ġmultiprocess": 1580,
      "Ġspeech": 1581,
      "Ġindivid": 1582,
      "Ġsens": 1583,
      "Ġgenetic": 1584,
      "Ġstrategy": 1585,
      "Ġtemporal": 1586,
      "Ġsepar": 1587,
      "Ġend": 1588,
      "Ġaccuracy": 1589,
      "ics": 1590,
      "sw": 1591,
      "fore": 1592,
      "Ġexplicit": 1593,
      "not": 1594,
      "Ġrepresentations": 1595,
      "gest": 1596,
      "Ġtak": 1597,
      "Ġcertain": 1598,
      "Ġconditions": 1599,
      "anced": 1600,
      "Ġvalues": 1601,
      "Ġmade": 1602,
      "Ġmaintain": 1603,
      "Ġinf": 1604,
      "reg": 1605,
      "Ġphys": 1606,
      "Ġactions": 1607,
      "Ġselection": 1608,
      "Ġpoints": 1609,
      "Ġsource": 1610,
      "Ġhel": 1611,
      "Ġefficiently": 1612,
      "Ġterm": 1613,
      "Ġsitu": 1614,
      "urity": 1615,
      "Ġappear": 1616,
      "ison": 1617,
      "ibility": 1618,
      "Ġexperi": 1619,
      "Ġinteractive": 1620,
      "Ġprobability": 1621,
      "Ġdemonstr": 1622,
      "Ġrobust": 1623,
      "Ġsequence": 1624,
      "ral": 1625,
      "Ġ-": 1626,
      "Ġindic": 1627,
      "Ġappropri": 1628,
      "Ġprinc": 1629,
      "part": 1630,
      "Ġchanges": 1631,
      "ax": 1632,
      "Ġtimes": 1633,
      "actions": 1634,
      "Ġreduce": 1635,
      "ane": 1636,
      "Ġorgan": 1637,
      "Ġvariables": 1638,
      "Ġwhat": 1639,
      "Ġengineering": 1640,
      "Ġelement": 1641,
      "udi": 1642,
      "Ġempir": 1643,
      "Ġhere": 1644,
      "Ġrestric": 1645,
      "back": 1646,
      "tit": 1647,
      "Ġsym": 1648,
      "Ġretrieval": 1649,
      "Ġdecom": 1650,
      "Ġinclude": 1651,
      "Ġprove": 1652,
      "Ġidentify": 1653,
      "Ġgeomet": 1654,
      "Ġobtained": 1655,
      "Ġrobo": 1656,
      "Ġindividual": 1657,
      "order": 1658,
      "vis": 1659,
      "Ġcompared": 1660,
      "rix": 1661,
      "Ġsecurity": 1662,
      "Ġalloc": 1663,
      "edi": 1664,
      "Ġless": 1665,
      "fort": 1666,
      "Ġorig": 1667,
      "ature": 1668,
      "Ġfinding": 1669,
      "Ġeither": 1670,
      "sitive": 1671,
      "Ġviews": 1672,
      "Ġgeneration": 1673,
      "ogene": 1674,
      "Ġheur": 1675,
      "Ġ5": 1676,
      "Ġind": 1677,
      "Ġapproximation": 1678,
      "Ġbasis": 1679,
      "Ġprincip": 1680,
      "ole": 1681,
      "Ġrelated": 1682,
      "cul": 1683,
      "Ġpartition": 1684,
      "Ġdig": 1685,
      "arget": 1686,
      "Ġparad": 1687,
      "Ġarti": 1688,
      "Ġeffici": 1689,
      "Ġfut": 1690,
      "Ġproviding": 1691,
      "rel": 1692,
      "Ġproject": 1693,
      "ably": 1694,
      "Ġexpress": 1695,
      "Ġconcurrent": 1696,
      "tivity": 1697,
      "mit": 1698,
      "Ġtri": 1699,
      "Ġbelie": 1700,
      "Ġcollection": 1701,
      "eter": 1702,
      "Ġread": 1703,
      "Ġmultim": 1704,
      "Ġvalue": 1705,
      "Ġincor": 1706,
      "Ġdefined": 1707,
      "Ġref": 1708,
      "Ġrece": 1709,
      "bers": 1710,
      "Ġcoll": 1711,
      "Ġcomponent": 1712,
      "sh": 1713,
      "Ġefficiency": 1714,
      "ring": 1715,
      "Ġbene": 1716,
      "ayes": 1717,
      "vari": 1718,
      "Ġfre": 1719,
      "Ġbi": 1720,
      "Ġresulting": 1721,
      "Ġsources": 1722,
      "Ġpartial": 1723,
      "Ġhigher": 1724,
      "atory": 1725,
      "Ġfuture": 1726,
      "Ġquanti": 1727,
      "Ġdocument": 1728,
      "Ġcheck": 1729,
      "Ġinitial": 1730,
      "Ġ,": 1731,
      "esis": 1732,
      "Ġmulticast": 1733,
      "Ġaccur": 1734,
      "Ġfew": 1735,
      "Ġnodes": 1736,
      "Ġstatistical": 1737,
      "Ġattrib": 1738,
      "tional": 1739,
      "000": 1740,
      "ernel": 1741,
      "Ġcoord": 1742,
      "ger": 1743,
      "Ġasp": 1744,
      "Ġfactor": 1745,
      "struct": 1746,
      "Ġspati": 1747,
      "Ġimplementations": 1748,
      "Ġautomatically": 1749,
      "Ġstatic": 1750,
      "Ġconfig": 1751,
      "Ġevolution": 1752,
      "point": 1753,
      "Ġequi": 1754,
      "Ġsignificantly": 1755,
      "Ġcomparison": 1756,
      "Ġ=": 1757,
      "Ġmatrix": 1758,
      "Ġoutput": 1759,
      "ifying": 1760,
      "Ġselect": 1761,
      "Ġseg": 1762,
      "veness": 1763,
      "Ġreli": 1764,
      "Ġinference": 1765,
      "oding": 1766,
      "Ġdepart": 1767,
      "ength": 1768,
      "Ġappropriate": 1769,
      "19": 1770,
      "ench": 1771,
      "less": 1772,
      "ata": 1773,
      "Ġfunctional": 1774,
      "Ġvia": 1775,
      "Ġparadig": 1776,
      "Ġarra": 1777,
      "Ġtarget": 1778,
      "edu": 1779,
      "Ġear": 1780,
      "ograph": 1781,
      "Ġmis": 1782,
      "tice": 1783,
      "enc": 1784,
      "Ġtrack": 1785,
      "Ġcontinuous": 1786,
      "verage": 1787,
      "cepts": 1788,
      "Ġextended": 1789,
      "Ġhierarchical": 1790,
      "off": 1791,
      "Ġbuilding": 1792,
      "Ġcr": 1793,
      "Ġnecessary": 1794,
      "Ġintegrated": 1795,
      "kes": 1796,
      "linear": 1797,
      "Ġproj": 1798,
      "ests": 1799,
      "Ġincreasing": 1800,
      "Ġgra": 1801,
      "rete": 1802,
      "Ġnumer": 1803,
      "Ġfault": 1804,
      "Ġself": 1805,
      "ital": 1806,
      "Ġconnection": 1807,
      "Ġoff": 1808,
      "Ġmanip": 1809,
      "ector": 1810,
      "Ġcompare": 1811,
      "Ġsuggest": 1812,
      "Ġpolicies": 1813,
      "Ġarbitrary": 1814,
      "Ġ6": 1815,
      "Ġactive": 1816,
      "ecti": 1817,
      "ories": 1818,
      "Ġbayes": 1819,
      "ants": 1820,
      "Ġarea": 1821,
      "Ġconstruction": 1822,
      "Ġprocedure": 1823,
      "ceed": 1824,
      "Ġ+": 1825,
      "Ġunderlying": 1826,
      "Ġpurp": 1827,
      "Ġconven": 1828,
      "ins": 1829,
      "Ġbenef": 1830,
      "ture": 1831,
      "onom": 1832,
      "old": 1833,
      "Ġpotential": 1834,
      "Ġ)": 1835,
      "Ġshort": 1836,
      "ice": 1837,
      "Ġwould": 1838,
      "Ġheter": 1839,
      "utes": 1840,
      "Ġability": 1841,
      "Ġsuit": 1842,
      "ogeneous": 1843,
      "Ġaff": 1844,
      "Ġlabor": 1845,
      "ention": 1846,
      "Ġpacket": 1847,
      "Ġdepartment": 1848,
      "bed": 1849,
      "Ġfund": 1850,
      "Ġconstant": 1851,
      "Ġloop": 1852,
      "Ġavoid": 1853,
      "Ġincorpor": 1854,
      "Ġtransp": 1855,
      "],": 1856,
      "yc": 1857,
      "Ġrelev": 1858,
      "sequ": 1859,
      "Ġpop": 1860,
      "annel": 1861,
      "Ġindex": 1862,
      "aring": 1863,
      "Ġparallelism": 1864,
      "Ġmapping": 1865,
      "Ġalge": 1866,
      "loy": 1867,
      "Ġmakes": 1868,
      "Ġprec": 1869,
      "enchmark": 1870,
      "Ġques": 1871,
      "Ġsynchronization": 1872,
      "bra": 1873,
      "Ġ&": 1874,
      "Ġprobabilistic": 1875,
      "itive": 1876,
      "ood": 1877,
      "Ġchall": 1878,
      "Ġplay": 1879,
      "Ġbroad": 1880,
      "gence": 1881,
      "Ġcaus": 1882,
      "lus": 1883,
      "wor": 1884,
      "Ġconcepts": 1885,
      "iform": 1886,
      "cp": 1887,
      "son": 1888,
      "brid": 1889,
      "Ġmultimedia": 1890,
      "vision": 1891,
      "ields": 1892,
      "man": 1893,
      "ynchron": 1894,
      "Ġsequences": 1895,
      "Ġdetermine": 1896,
      "aries": 1897,
      "Ġef": 1898,
      "Ġdra": 1899,
      "Ġred": 1900,
      "Ġfixed": 1901,
      "Ġren": 1902,
      "Ġgenerated": 1903,
      "hhhh": 1904,
      "scal": 1905,
      "Ġperformed": 1906,
      "Ġmessages": 1907,
      "Ġneg": 1908,
      "Ġequival": 1909,
      "Ġneeded": 1910,
      "ote": 1911,
      "Ġempirical": 1912,
      "bs": 1913,
      "cial": 1914,
      "Ġest": 1915,
      "Ġmethodology": 1916,
      "Ġvalid": 1917,
      "Ġartificial": 1918,
      "Ġexact": 1919,
      "Ġlimited": 1920,
      "Ġ8": 1921,
      "Ġfour": 1922,
      "Ġsolve": 1923,
      "Ġsynth": 1924,
      "Ġir": 1925,
      "Ġsequential": 1926,
      "Ġrelationship": 1927,
      "Ġstudies": 1928,
      "Ġfoundation": 1929,
      "Ġswit": 1930,
      "Ġshows": 1931,
      "Ġmaximum": 1932,
      "Ġbenchmark": 1933,
      "Ġeffects": 1934,
      "art": 1935,
      "app": 1936,
      "Ġta": 1937,
      "Ġacross": 1938,
      "Ġdetection": 1939,
      "Ġrespect": 1940,
      "Ġworkst": 1941,
      "encies": 1942,
      "oses": 1943,
      "Ġrefin": 1944,
      "Ġminimum": 1945,
      "Ġcalcul": 1946,
      "Ġfull": 1947,
      "tics": 1948,
      "Ġmath": 1949,
      "aneous": 1950,
      "Ġelim": 1951,
      "Ġservers": 1952,
      "like": 1953,
      "Ġgreat": 1954,
      "Ġdescription": 1955,
      "Ġwhose": 1956,
      "conn": 1957,
      "Ġprototype": 1958,
      "ological": 1959,
      "Ġfacil": 1960,
      "Ġpub": 1961,
      "Ġchange": 1962,
      "ether": 1963,
      "ablish": 1964,
      "ored": 1965,
      "Ġscienti": 1966,
      "position": 1967,
      "Ġspatial": 1968,
      "though": 1969,
      "pr": 1970,
      "load": 1971,
      "sib": 1972,
      "Ġrather": 1973,
      "Ġchannel": 1974,
      "spec": 1975,
      "Ġaf": 1976,
      "Ġadvantage": 1977,
      "93": 1978,
      "mod": 1979,
      "arse": 1980,
      "Ġsupports": 1981,
      "Ġevaluate": 1982,
      "Ġestimation": 1983,
      "Ġstep": 1984,
      "Ġconsistency": 1985,
      "Ġwrit": 1986,
      "Ġcooper": 1987,
      "other": 1988,
      "Ġunderstanding": 1989,
      "sing": 1990,
      "Ġassign": 1991,
      "Ġamount": 1992,
      "eti": 1993,
      "wn": 1994,
      "cr": 1995,
      "ently": 1996,
      "Ġcharacteristics": 1997,
      "Ġachieved": 1998,
      "Ġcri": 1999,
      "Ġvol": 2000,
      "Ġalternative": 2001,
      "structure": 2002,
      "Ġrecur": 2003,
      "Ġnotion": 2004,
      "urren": 2005,
      "Ġsurface": 2006,
      "liminary": 2007,
      "Ġreus": 2008,
      "Ġstron": 2009,
      "Ġdefine": 2010,
      "Ġrunning": 2011,
      "Ġbayesian": 2012,
      "su": 2013,
      "Ġdep": 2014,
      "Ġphysical": 2015,
      "Ġevery": 2016,
      "Ġlos": 2017,
      "Ġalthough": 2018,
      "ep": 2019,
      "Ġanalyze": 2020,
      "Ġsatisf": 2021,
      "tal": 2022,
      "Ġansw": 2023,
      "Ġparameter": 2024,
      "Ġmic": 2025,
      "lication": 2026,
      "Ġclassif": 2027,
      "Ġverification": 2028,
      "Ġabstraction": 2029,
      "Ġmathem": 2030,
      "Ġlength": 2031,
      "Ġshap": 2032,
      "ynchronous": 2033,
      "Ġfeed": 2034,
      "Ġflexible": 2035,
      "ches": 2036,
      "Ġoriginal": 2037,
      "Ġinteraction": 2038,
      "Ġlibrary": 2039,
      "Ġestablish": 2040,
      "Ġaction": 2041,
      "Ġdone": 2042,
      "olution": 2043,
      "riven": 2044,
      "Ġmatching": 2045,
      "idd": 2046,
      "Ġexpected": 2047,
      "Ġlevels": 2048,
      "Ġdigital": 2049,
      "Ġconsis": 2050,
      "ration": 2051,
      "Ġmonit": 2052,
      "Ġdocuments": 2053,
      "Ġent": 2054,
      "Ġfield": 2055,
      "Ġunc": 2056,
      "Ġmetric": 2057,
      "entially": 2058,
      "Ġgeneralization": 2059,
      "Ġsimpl": 2060,
      "arily": 2061,
      "Ġplans": 2062,
      "Ġelect": 2063,
      "more": 2064,
      "Ġcell": 2065,
      "Ġnorm": 2066,
      "verse": 2067,
      "Ġintegration": 2068,
      "Ġaverage": 2069,
      "Ġhyp": 2070,
      "Ġdevic": 2071,
      "Ġsharing": 2072,
      "ove": 2073,
      "round": 2074,
      "Ġbase": 2075,
      "Ġexist": 2076,
      "Ġwhether": 2077,
      "Ġdiag": 2078,
      "Ġport": 2079,
      "Ġmicro": 2080,
      "92": 2081,
      "jor": 2082,
      "ologies": 2083,
      "Ġheterogeneous": 2084,
      "Ġanother": 2085,
      "Ġcomputations": 2086,
      "Ġfrequ": 2087,
      "Ġmeans": 2088,
      "Ġvision": 2089,
      "ired": 2090,
      "urn": 2091,
      "Ġstates": 2092,
      "Ġgoals": 2093,
      "riter": 2094,
      "osition": 2095,
      "known": 2096,
      "Ġhelp": 2097,
      "Ġhypoth": 2098,
      "Ġparadigm": 2099,
      "sf": 2100,
      "Ġreduction": 2101,
      "Ġlatency": 2102,
      "herent": 2103,
      "Ġsymb": 2104,
      "Ġpreliminary": 2105,
      "play": 2106,
      "Ġpass": 2107,
      "uration": 2108,
      "mem": 2109,
      "inistic": 2110,
      "Ġnational": 2111,
      "Ġsto": 2112,
      "force": 2113,
      "Ġloss": 2114,
      "Ġpreviously": 2115,
      "free": 2116,
      "Ġenti": 2117,
      "Ġadvanced": 2118,
      "Ġalgebra": 2119,
      "esh": 2120,
      "Ġmajor": 2121,
      "Ġbuff": 2122,
      "Ġillustrate": 2123,
      "Ġpolicy": 2124,
      "efficient": 2125,
      "ks": 2126,
      "Ġhost": 2127,
      "Ġord": 2128,
      "Ġtrade": 2129,
      "Ġcorrespon": 2130,
      "Ġatm": 2131,
      "Ġgenerate": 2132,
      "Ġtheoretical": 2133,
      "Ġassociated": 2134,
      "taneous": 2135,
      "vation": 2136,
      "ially": 2137,
      "Ġdimension": 2138,
      "Ġbal": 2139,
      "Ġsimulations": 2140,
      "Ġmarkov": 2141,
      "Ġintroduced": 2142,
      "Ġdirectly": 2143,
      "equ": 2144,
      "tle": 2145,
      "ections": 2146,
      "tically": 2147,
      "Ġkernel": 2148,
      "Ġla": 2149,
      "Ġadditional": 2150,
      "Ġinvestigate": 2151,
      "Ġtransformation": 2152,
      "rite": 2153,
      "Ġpredict": 2154,
      "Ġaccurate": 2155,
      "Ġsaf": 2156,
      "plete": 2157,
      "Ġfollowing": 2158,
      "14": 2159,
      "Ġcontract": 2160,
      "ooth": 2161,
      "Ġhyper": 2162,
      "Ġoperation": 2163,
      "Ġasynchronous": 2164,
      "Ġens": 2165,
      "Ġoverall": 2166,
      "own": 2167,
      "perform": 2168,
      "Ġcombin": 2169,
      "Ġmaking": 2170,
      "Ġvariable": 2171,
      "Ġextract": 2172,
      "Ġsubst": 2173,
      "Ġhybrid": 2174,
      "fs": 2175,
      "Ġapply": 2176,
      "Ġconvergence": 2177,
      "Ġuniform": 2178,
      "Ġcombination": 2179,
      "Ġexperience": 2180,
      "Ġacqu": 2181,
      "Ġrecently": 2182,
      "Ġnp": 2183,
      "Ġautonom": 2184,
      "Ġprediction": 2185,
      "Ġtake": 2186,
      "ym": 2187,
      "Ġcyc": 2188,
      "Ġplace": 2189,
      "ights": 2190,
      "Ġeffect": 2191,
      "Ġhierarchy": 2192,
      "Ġcenter": 2193,
      "Ġleast": 2194,
      "Ġ198": 2195,
      "Ġcontrib": 2196,
      "ava": 2197,
      "let": 2198,
      "ash": 2199,
      "Ġdecomposition": 2200,
      "memory": 2201,
      "Ġsuccessful": 2202,
      "learning": 2203,
      "Ġsignal": 2204,
      "Ġderived": 2205,
      "Ġevent": 2206,
      "by": 2207,
      "iti": 2208,
      "Ġweak": 2209,
      "ategor": 2210,
      "Ġhighly": 2211,
      "Ġdynamically": 2212,
      "ferences": 2213,
      "Ġdegree": 2214,
      "Ġcriter": 2215,
      "Ġcompute": 2216,
      "Ġdiskussed": 2217,
      "hib": 2218,
      "Ġallocation": 2219,
      "Ġess": 2220,
      "Ġsufficient": 2221,
      "95": 2222,
      "ended": 2223,
      "Ġstrong": 2224,
      "Ġtr": 2225,
      "Ġprof": 2226,
      "Ġagg": 2227,
      "Ġresponse": 2228,
      "Ġcoun": 2229,
      "Ġassumptions": 2230,
      "aving": 2231,
      "Ġthread": 2232,
      "Ġinterfaces": 2233,
      "Ġproduce": 2234,
      "Ġdeal": 2235,
      "Ġtransfer": 2236,
      "Ġtheorem": 2237,
      "Ġtransformations": 2238,
      "Ġlaboratory": 2239,
      "Ġbuilt": 2240,
      "atical": 2241,
      "pa": 2242,
      "Ġpost": 2243,
      "Ġincrease": 2244,
      "Ġmesh": 2245,
      "Ġdeveloping": 2246,
      "Ġimproved": 2247,
      "Ġaspects": 2248,
      "Ġfunda": 2249,
      "Ġbran": 2250,
      "Ġauthor": 2251,
      "Ġliter": 2252,
      "Ġconventional": 2253,
      "Ġcomputers": 2254,
      "Ġremote": 2255,
      "Ġdetect": 2256,
      "Ġconsidered": 2257,
      "Ġemploy": 2258,
      "Ġimpact": 2259,
      "Ġsmooth": 2260,
      "Ġcam": 2261,
      "ott": 2262,
      "Ġdiskrete": 2263,
      "Ġjava": 2264,
      "Ġrepresenting": 2265,
      "Ġexamine": 2266,
      "Ġattem": 2267,
      "inter": 2268,
      "Ġproceed": 2269,
      "Ġnsf": 2270,
      "Ġcannot": 2271,
      "vised": 2272,
      "erg": 2273,
      "Ġfaster": 2274,
      "Ġfurthermore": 2275,
      "Ġnoise": 2276,
      "Ġprogramr": 2277,
      "ingu": 2278,
      "Ġnav": 2279,
      "Ġsumm": 2280,
      "Ġseries": 2281,
      "Ġpowerful": 2282,
      "Ġcopy": 2283,
      "Ġintelligent": 2284,
      "Ġpe": 2285,
      "Ġcategor": 2286,
      "Ġword": 2287,
      "Ġimprovement": 2288,
      "Ġtesting": 2289,
      "iod": 2290,
      "ons": 2291,
      "Ġsti": 2292,
      "ii": 2293,
      "Ġparts": 2294,
      "Ġmotiv": 2295,
      "Ġdefinition": 2296,
      "Ġmater": 2297,
      "Ġscale": 2298,
      "Ġscalable": 2299,
      "Ġscientific": 2300,
      "Ġ`": 2301,
      "astic": 2302,
      "Ġtherefore": 2303,
      "Ġpartitioning": 2304,
      "Ġcollabor": 2305,
      "forcement": 2306,
      "pec": 2307,
      "Ġvector": 2308,
      "Ġincremental": 2309,
      "Ġguarantees": 2310,
      "Ġclos": 2311,
      "Ġeasily": 2312,
      "Ġfam": 2313,
      "space": 2314,
      "Ġchallen": 2315,
      "Ġafter": 2316,
      "Ġinteresting": 2317,
      "Ġenh": 2318,
      "optim": 2319,
      "Ġwave": 2320,
      "Ġupon": 2321,
      "Ġcurrently": 2322,
      "Ġoccur": 2323,
      "Ġcontra": 2324,
      "Ġdeli": 2325,
      "abilities": 2326,
      "Ġnode": 2327,
      "Ġdistance": 2328,
      "Ġopen": 2329,
      "Ġbuild": 2330,
      "mmet": 2331,
      "Ġlearned": 2332,
      "Ġtoward": 2333,
      "ramm": 2334,
      "Ġsegment": 2335,
      "bo": 2336,
      "ww": 2337,
      "Ġcould": 2338,
      "Ġrelevant": 2339,
      "Ġautonomous": 2340,
      "zy": 2341,
      "Ġsynt": 2342,
      "orph": 2343,
      "Ġautomated": 2344,
      "Ġ7": 2345,
      "Ġtoget": 2346,
      "Ġtogether": 2347,
      "Ġstill": 2348,
      "medi": 2349,
      "Ġpage": 2350,
      "Ġagain": 2351,
      "Ġdemand": 2352,
      "Ġbecome": 2353,
      "ectiveness": 2354,
      "94": 2355,
      "tp": 2356,
      "Ġbounded": 2357,
      "inate": 2358,
      "Ġque": 2359,
      "Ġexpression": 2360,
      "ructions": 2361,
      "Ġcritical": 2362,
      "Ġsupporting": 2363,
      "Ġcombined": 2364,
      "Ġequations": 2365,
      "Ġpurpose": 2366,
      "Ġgeometric": 2367,
      "Ġalong": 2368,
      "Ġapproximate": 2369,
      "Ġtypically": 2370,
      "Ġclustering": 2371,
      "Ġadvantages": 2372,
      "Ġclose": 2373,
      "xt": 2374,
      "Ġmap": 2375,
      "Ġreconst": 2376,
      "Ġsimultaneous": 2377,
      "Ġmining": 2378,
      "Ġways": 2379,
      "Ġarray": 2380,
      "Ġfundamental": 2381,
      "91": 2382,
      "tran": 2383,
      "lective": 2384,
      "Ġeffectiveness": 2385,
      "comp": 2386,
      "Ġelements": 2387,
      "Ġnavig": 2388,
      "Ġoperators": 2389,
      "Ġcircuits": 2390,
      "Ġrecei": 2391,
      "Ġperiod": 2392,
      "Ġlocation": 2393,
      "Ġextensions": 2394,
      "Ġnear": 2395,
      "Ġspecified": 2396,
      "scale": 2397,
      "Ġchain": 2398,
      "96": 2399,
      "Ġsk": 2400,
      "Ġrein": 2401,
      "ustom": 2402,
      "Ġmultiprocessor": 2403,
      "Ġinterconn": 2404,
      "Ġyear": 2405,
      "Ġinstruction": 2406,
      "Ġproperty": 2407,
      "Ġgrow": 2408,
      "Ġerrors": 2409,
      "Ġenables": 2410,
      "Ġfeas": 2411,
      "Ġadaptation": 2412,
      "me": 2413,
      "Ġembed": 2414,
      "Ġminimal": 2415,
      "Ġheuristic": 2416,
      "Ġattributes": 2417,
      "Ġcorresponding": 2418,
      "Ġmaterial": 2419,
      "Ġreview": 2420,
      "Ġplat": 2421,
      "Ġpresence": 2422,
      "Ġexpressed": 2423,
      "Ġcommer": 2424,
      "Ġsetting": 2425,
      "Ġneeds": 2426,
      "cast": 2427,
      "pid": 2428,
      "Ġpair": 2429,
      "ne": 2430,
      "Ġexplore": 2431,
      "Ġrecovery": 2432,
      "Ġregular": 2433,
      "Ġpaths": 2434,
      "Ġqos": 2435,
      "ording": 2436,
      "emb": 2437,
      "Ġcompeti": 2438,
      "Ġissue": 2439,
      "ded": 2440,
      "Ġtru": 2441,
      "Ġli": 2442,
      "Ġoptimizations": 2443,
      "Ġcapabilities": 2444,
      "Ġindicate": 2445,
      "Ġgain": 2446,
      "Ġtransaction": 2447,
      "idden": 2448,
      "ystem": 2449,
      "Ġwire": 2450,
      "Ġlab": 2451,
      "Ġperforms": 2452,
      "Ġradi": 2453,
      "Ġnumerical": 2454,
      "Ġbehaviors": 2455,
      "Ġcorrectness": 2456,
      "Ġsubset": 2457,
      "Ġfacilit": 2458,
      "Ġmedia": 2459,
      "Ġliterature": 2460,
      "ams": 2461,
      "Ġfit": 2462,
      "Ġallowing": 2463,
      "Ġrates": 2464,
      "Ġmeasurements": 2465,
      "ses": 2466,
      "Ġname": 2467,
      "Ġqual": 2468,
      "Ġbott": 2469,
      "fication": 2470,
      "Ġcircuit": 2471,
      "Ġshape": 2472,
      "Ġapplying": 2473,
      "Ġderive": 2474,
      "Ġincludes": 2475,
      "Ġproofs": 2476,
      "Ġ|": 2477,
      "ero": 2478,
      "pper": 2479,
      "Ġtracking": 2480,
      "li": 2481,
      "Ġ1994": 2482,
      "Ġproduct": 2483,
      "Ġmove": 2484,
      "Ġgives": 2485,
      "Ġcollect": 2486,
      "Ġpractice": 2487,
      "Ġrecursive": 2488,
      "ick": 2489,
      "ressive": 2490,
      "Ġspecifications": 2491,
      "Ġcustom": 2492,
      "Ġdisplay": 2493,
      "Ġidea": 2494,
      "Ġrobots": 2495,
      "ton": 2496,
      "Ġinstead": 2497,
      "Ġdeterministic": 2498,
      "indow": 2499,
      "Ġreinforcement": 2500,
      "ob": 2501,
      "Ġsimulated": 2502,
      "Ġcosts": 2503,
      "specific": 2504,
      "Ġrepl": 2505,
      "Ġinstit": 2506,
      "Ġeffort": 2507,
      "Ġsparse": 2508,
      "Ġbenefits": 2509,
      "12": 2510,
      "Ġinduction": 2511,
      "Ġtranslation": 2512,
      "Ġweight": 2513,
      "Ġstar": 2514,
      "comput": 2515,
      "Ġhandle": 2516,
      "Ġtcp": 2517,
      "Ġartic": 2518,
      "Ġthroughput": 2519,
      "udied": 2520,
      "Ġcur": 2521,
      "Ġnext": 2522,
      "Ġutility": 2523,
      "driven": 2524,
      "lies": 2525,
      "Ġtotal": 2526,
      "Ġpercept": 2527,
      "Ġscen": 2528,
      "Ġreduced": 2529,
      "Ġcentral": 2530,
      "Ġiterative": 2531,
      "Ġprojects": 2532,
      "Ġcontrast": 2533,
      "Ġtoler": 2534,
      "Ġyet": 2535,
      "Ġlis": 2536,
      "Ġfully": 2537,
      "Ġclassical": 2538,
      "Ġwords": 2539,
      "Ġinstances": 2540,
      "Ġfeedback": 2541,
      "iting": 2542,
      "Ġna": 2543,
      "Ġrole": 2544,
      "Ġrelational": 2545,
      "Ġlayer": 2546,
      "Ġsynthesis": 2547,
      "Ġupdate": 2548,
      "Ġargue": 2549,
      "agent": 2550,
      "Ġcombining": 2551,
      "lu": 2552,
      "lar": 2553,
      "Ġgeneralized": 2554,
      "Ġconclus": 2555,
      "Ġbecom": 2556,
      "class": 2557,
      "Ġmix": 2558,
      "Ġmag": 2559,
      "Ġfailure": 2560,
      "Ġstat": 2561,
      "Ġpref": 2562,
      "Ġrapid": 2563,
      "pecially": 2564,
      "Ġcapac": 2565,
      "Ġworkstations": 2566,
      "Ġnormal": 2567,
      "fact": 2568,
      "itative": 2569,
      "Ġareas": 2570,
      "Ġrati": 2571,
      "cont": 2572,
      "Ġconnections": 2573,
      "Ġvolum": 2574,
      "Ġgramm": 2575,
      "Ġlogical": 2576,
      "Ġusually": 2577,
      "Ġaddresses": 2578,
      "Ġdead": 2579,
      "Ġmultip": 2580,
      "Ġrepresented": 2581,
      "Ġleads": 2582,
      "Ġaggreg": 2583,
      "Ġagainst": 2584,
      "ising": 2585,
      "Ġhidden": 2586,
      "Ġmodular": 2587,
      "agation": 2588,
      "Ġnature": 2589,
      "Ġevents": 2590,
      "ithm": 2591,
      "ypt": 2592,
      "Ġsuitable": 2593,
      "Ġmembers": 2594,
      "Ġnonlinear": 2595,
      "Ġexplan": 2596,
      "Ġconsists": 2597,
      "Ġproceedings": 2598,
      "Ġincom": 2599,
      "Ġespecially": 2600,
      "Ġimprovements": 2601,
      "rop": 2602,
      "Ġstudied": 2603,
      "Ġet": 2604,
      "Ġ1993": 2605,
      "Ġruntime": 2606,
      "Ġquestion": 2607,
      "10": 2608,
      "Ġanim": 2609,
      "urrency": 2610,
      "co": 2611,
      "chastic": 2612,
      "Ġexhib": 2613,
      "Ġworkload": 2614,
      "Ġchecking": 2615,
      "Ġprecise": 2616,
      "go": 2617,
      "Ġdri": 2618,
      "Ġrender": 2619,
      "flow": 2620,
      "Ġlarger": 2621,
      "Ġaccom": 2622,
      "Ġphase": 2623,
      "onal": 2624,
      "Ġsen": 2625,
      "Ġremain": 2626,
      "Ġvisualization": 2627,
      "Ġdetailed": 2628,
      "Ġsymbolic": 2629,
      "omic": 2630,
      "Ġgran": 2631,
      "Ġintelligence": 2632,
      "Ġcoordination": 2633,
      "Ġmathematical": 2634,
      "lines": 2635,
      "min": 2636,
      "sm": 2637,
      "Ġip": 2638,
      "Ġaccording": 2639,
      "Ġadapt": 2640,
      "Ġcaching": 2641,
      "Ġsituations": 2642,
      "Ġdepth": 2643,
      "usion": 2644,
      "Ġgame": 2645,
      "Ġaccount": 2646,
      "ways": 2647,
      "Ġown": 2648,
      "arent": 2649,
      "ensity": 2650,
      "ited": 2651,
      "ique": 2652,
      "Ġreliable": 2653,
      "Ġentire": 2654,
      "Ġpast": 2655,
      "exp": 2656,
      "Ġyears": 2657,
      "Ġ10": 2658,
      "Ġmeasures": 2659,
      "Ġestimate": 2660,
      "det": 2661,
      "typ": 2662,
      "Ġwindow": 2663,
      "Ġunits": 2664,
      "Ġposition": 2665,
      "Ġdistributions": 2666,
      "osing": 2667,
      "Ġarchitectural": 2668,
      "Ġimproving": 2669,
      "Ġauthors": 2670,
      "Ġfilter": 2671,
      "Ġcontribution": 2672,
      "Ġfree": 2673,
      "Ġtransactions": 2674,
      "Ġsteps": 2675,
      "Ġflexibility": 2676,
      "Ġsecure": 2677,
      "Ġevid": 2678,
      "Ġresolution": 2679,
      "Ġcontent": 2680,
      "Ġlittle": 2681,
      "sitions": 2682,
      "Ġspaces": 2683,
      "Ġredund": 2684,
      "Ġqualitative": 2685,
      "Ġsort": 2686,
      "Ġopp": 2687,
      "Ġaccept": 2688,
      "Ġdesigns": 2689,
      "Ġschema": 2690,
      "wise": 2691,
      "ird": 2692,
      "Ġdiskovery": 2693,
      "Ġmanipul": 2694,
      "Ġsense": 2695,
      "Ġ1995": 2696,
      "Ġconstructed": 2697,
      "Ġidentif": 2698,
      "most": 2699,
      "Ġdeb": 2700,
      "Ġrefinement": 2701,
      "Ġccr": 2702,
      "Ġmanner": 2703,
      "Ġspecifically": 2704,
      "Ġwidely": 2705,
      "Ġpreser": 2706,
      "performance": 2707,
      "hood": 2708,
      "Ġimproves": 2709,
      "Ġconcern": 2710,
      "gra": 2711,
      "ener": 2712,
      "Ġimplementing": 2713,
      "Ġmatch": 2714,
      "Ġuncertain": 2715,
      "iring": 2716,
      "Ġpossib": 2717,
      "Ġdiskusses": 2718,
      "Ġordering": 2719,
      "Ġtested": 2720,
      "Ġpp": 2721,
      "Ġcodes": 2722,
      "Ġbrie": 2723,
      "Ġreference": 2724,
      "Ġinteractions": 2725,
      "Ġchoice": 2726,
      "ancing": 2727,
      "Ġbl": 2728,
      "Ġbinary": 2729,
      "Ġcomposition": 2730,
      "aps": 2731,
      "Ġsampl": 2732,
      "Ġconsistent": 2733,
      "Ġtiming": 2734,
      "Ġautomata": 2735,
      "Ġeffectively": 2736,
      "Ġprocedures": 2737,
      "Ġtriang": 2738,
      "yle": 2739,
      "Ġnow": 2740,
      "uning": 2741,
      "Ġexpon": 2742,
      "\"\",": 2743,
      "Ġdecisions": 2744,
      "Ġsimilarity": 2745,
      "ographic": 2746,
      "Ġcrypt": 2747,
      "Ġstochastic": 2748,
      "++": 2749,
      "02": 2750,
      "Ġcross": 2751,
      "Ġmodules": 2752,
      "Ġinteract": 2753,
      "Ġmultiprocessors": 2754,
      "world": 2755,
      "Ġdetermining": 2756,
      "Ġexplain": 2757,
      "Ġsituation": 2758,
      "Ġmer": 2759,
      "parallel": 2760,
      "Ġparticularly": 2761,
      "Ġargu": 2762,
      "mediate": 2763,
      "Ġcomputed": 2764,
      "Ġanalog": 2765,
      "Ġcapture": 2766,
      "Ġdependence": 2767,
      "Ġconstructing": 2768,
      "Ġinterpretation": 2769,
      "Ġdemonstrated": 2770,
      "Ġcm": 2771,
      "uting": 2772,
      "Ġconference": 2773,
      "Ġconsequ": 2774,
      "Ġworst": 2775,
      "Ġregions": 2776,
      "Ġreuse": 2777,
      "Ġbrief": 2778,
      "Ġsurve": 2779,
      "Ġspeedup": 2780,
      "ior": 2781,
      "licated": 2782,
      "Ġmeet": 2783,
      "Ġsurfaces": 2784,
      "Ġfair": 2785,
      "Ġorganization": 2786,
      "Ġtransport": 2787,
      "15": 2788,
      "des": 2789,
      "Ġdistin": 2790,
      "Ġmoreover": 2791,
      "we": 2792,
      "Ġfi": 2793,
      "Ġcompression": 2794,
      "Ġscene": 2795,
      "arb": 2796,
      "Ġconcurrency": 2797,
      "Ġ*": 2798,
      "Ġ;": 2799,
      "Ġinstance": 2800,
      "Ġsample": 2801,
      "Ġpartially": 2802,
      "iers": 2803,
      "Ġreach": 2804,
      "Ġattention": 2805,
      "Ġpopular": 2806,
      "Ġequivalent": 2807,
      "Ġcomplement": 2808,
      "Ġregion": 2809,
      "Ġinstitute": 2810,
      "wh": 2811,
      "Ġguid": 2812,
      "Ġoth": 2813,
      "Ġbit": 2814,
      "Ġgenerating": 2815,
      "Ġsl": 2816,
      "ames": 2817,
      "Ġcoup": 2818,
      "Ġdynamics": 2819,
      "Ġversions": 2820,
      "Ġeasy": 2821,
      "Ġideas": 2822,
      "Ġai": 2823,
      "orn": 2824,
      "Ġlex": 2825,
      "Ġcorrel": 2826,
      "Ġaug": 2827,
      "Ġobjective": 2828,
      "Ġruns": 2829,
      "Ġsatisfy": 2830,
      "Ġcorrespond": 2831,
      "Ġrestricted": 2832,
      "cent": 2833,
      "Ġaudi": 2834,
      "Ġextern": 2835,
      "Ġstructured": 2836,
      "Ġlook": 2837,
      "Ġinductive": 2838,
      "Ġcommercial": 2839,
      "Ġlimitations": 2840,
      "Ġcooperative": 2841,
      "ifications": 2842,
      "Ġpolyg": 2843,
      "Ġinv": 2844,
      "ars": 2845,
      "Ġhist": 2846,
      "Ġobserv": 2847,
      "Ġlabel": 2848,
      "na": 2849,
      "Ġvary": 2850,
      "spective": 2851,
      "Ġreducing": 2852,
      "Ġestimates": 2853,
      "Ġconstructs": 2854,
      "Ġtakes": 2855,
      "ws": 2856,
      "Ġfields": 2857,
      "Ġmight": 2858,
      "Ġformulation": 2859,
      "heren": 2860,
      "Ġrelatively": 2861,
      "Ġcamer": 2862,
      "Ġlif": 2863,
      "Ġstra": 2864,
      "sistent": 2865,
      "Ġpages": 2866,
      "processor": 2867,
      "Ġbuffer": 2868,
      "lier": 2869,
      "tivi": 2870,
      "vex": 2871,
      "Ġsolved": 2872,
      "Ġclients": 2873,
      "Ġreflect": 2874,
      "Ġline": 2875,
      "Ġcapable": 2876,
      "Ġfailures": 2877,
      "Ġcalculus": 2878,
      "Ġwritten": 2879,
      "Ġupper": 2880,
      "Ġassumption": 2881,
      "Ġtradeoff": 2882,
      "Ġothers": 2883,
      "itives": 2884,
      "tivities": 2885,
      "resh": 2886,
      "Ġmodule": 2887,
      "Ġkin": 2888,
      "Ġitself": 2889,
      "Ġexplor": 2890,
      "Ġprimitives": 2891,
      "Ġevidence": 2892,
      "Ġtheories": 2893,
      "Ġforce": 2894,
      "ements": 2895,
      "Ġbefore": 2896,
      "Ġsee": 2897,
      "Ġconfiguration": 2898,
      "Ġbroadcast": 2899,
      "tol": 2900,
      "Ġaim": 2901,
      "Ġsent": 2902,
      "Ġperson": 2903,
      "net": 2904,
      "Ġslow": 2905,
      "Ġrequests": 2906,
      "Ġoperator": 2907,
      "Ġgover": 2908,
      "Ġproduces": 2909,
      "Ġmonitoring": 2910,
      "Ġax": 2911,
      "Ġpi": 2912,
      "Ġmeta": 2913,
      "Ġassemb": 2914,
      "Ġimportance": 2915,
      "Ġanalyzes": 2916,
      "pus": 2917,
      "Ġworking": 2918,
      "Ġratio": 2919,
      "ath": 2920,
      "Ġreactive": 2921,
      "ems": 2922,
      "Ġcompetitive": 2923,
      "Ġbin": 2924,
      "Ġcondition": 2925,
      "tices": 2926,
      "Ġrequest": 2927,
      "Ġinternal": 2928,
      "Ġprefet": 2929,
      "rag": 2930,
      "Ġapplicable": 2931,
      "Ġtransmission": 2932,
      "Ġrelation": 2933,
      "Ġcharacterization": 2934,
      "Ġconnected": 2935,
      "Ġheuristics": 2936,
      "Ġrendering": 2937,
      "rec": 2938,
      "Ġclock": 2939,
      "Ġlocality": 2940,
      "finite": 2941,
      "Ġnavigation": 2942,
      "Ġexternal": 2943,
      "tra": 2944,
      "Ġalways": 2945,
      "ighb": 2946,
      "fice": 2947,
      "ergy": 2948,
      "Ġprinciples": 2949,
      "arbage": 2950,
      "Ġforms": 2951,
      "Ġregard": 2952,
      "Ġgroups": 2953,
      "Ġedge": 2954,
      "Ġdescriptions": 2955,
      "olean": 2956,
      "Ġplanner": 2957,
      "atives": 2958,
      "Ġthird": 2959,
      "rees": 2960,
      "Ġfar": 2961,
      "Ġrealistic": 2962,
      "Ġreduces": 2963,
      "Ġclassifier": 2964,
      "Ġconclusions": 2965,
      "pass": 2966,
      "Ġsound": 2967,
      "Ġ1996": 2968,
      "Ġdebug": 2969,
      "Ġcoding": 2970,
      "Ġfine": 2971,
      "Ġadj": 2972,
      "Ġgeneric": 2973,
      "Ġevaluated": 2974,
      "Ġearlier": 2975,
      "Ġdevices": 2976,
      "optimal": 2977,
      "aut": 2978,
      "ractions": 2979,
      "toler": 2980,
      "Ġbr": 2981,
      "Ġachieves": 2982,
      "Ġcreate": 2983,
      "Ġmanipulation": 2984,
      "Ġtowards": 2985,
      "Ġreconstruction": 2986,
      "Ġmagn": 2987,
      "Ġconclud": 2988,
      "Ġ1992": 2989,
      "Ġstream": 2990,
      "Ġrelationships": 2991,
      "ults": 2992,
      "Ġperm": 2993,
      "Ġtrace": 2994,
      "Ġregression": 2995,
      "Ġcompilation": 2996,
      "Ġseparate": 2997,
      "mitted": 2998,
      "ters": 2999,
      "Ġexce": 3000,
      "Ġimplicit": 3001,
      "ude": 3002,
      "Ġreported": 3003,
      "Ġconflic": 3004,
      "Ġcluster": 3005,
      "Ġillustr": 3006,
      "Ġspect": 3007,
      "Ġagency": 3008,
      "Ġminimize": 3009,
      "Ġinvolves": 3010,
      "97": 3011,
      "Ġve": 3012,
      "Ġgarbage": 3013,
      "Ġenough": 3014,
      "Ġoverview": 3015,
      "Ġcontains": 3016,
      "Ġguaranteed": 3017,
      "Ġfiles": 3018,
      "Ġtele": 3019,
      "Ġsensor": 3020,
      "eli": 3021,
      "Ġworks": 3022,
      "Ġassess": 3023,
      "Ġtaken": 3024,
      "Ġoffice": 3025,
      "Ġmut": 3026,
      "Ġunix": 3027,
      "Ġdeclar": 3028,
      "Ġsugges": 3029,
      "Ġupdates": 3030,
      "sim": 3031,
      "writ": 3032,
      "Ġtests": 3033,
      "Ġthough": 3034,
      "Ġwrite": 3035,
      "lications": 3036,
      "duct": 3037,
      "Ġnumbers": 3038,
      "Ġgraphical": 3039,
      "Ġboolean": 3040,
      "Ġinvolved": 3041,
      "Ġcopies": 3042,
      "Ġelectron": 3043,
      "Ġembedded": 3044,
      "Ġaudio": 3045,
      "90": 3046,
      "hing": 3047,
      "Ġml": 3048,
      "Ġalmost": 3049,
      "Ġpermission": 3050,
      "spe": 3051,
      "Ġinfra": 3052,
      "Ġht": 3053,
      "Ġappe": 3054,
      "Ġactivities": 3055,
      "Ġresearchers": 3056,
      "Ġexplicitly": 3057,
      "Ġappears": 3058,
      "Ġgovern": 3059,
      "Ġsymmet": 3060,
      "Ġperforming": 3061,
      "Ġcover": 3062,
      "Ġcommit": 3063,
      "uz": 3064,
      "Ġinherent": 3065,
      "Ġcorpor": 3066,
      "Ġinvari": 3067,
      "assive": 3068,
      "Ġspl": 3069,
      "Ġrandomized": 3070,
      "Ġanswer": 3071,
      "gram": 3072,
      "Ġpen": 3073,
      "Ġmig": 3074,
      "Ġprogress": 3075,
      "Ġshowing": 3076,
      "Ġcombinator": 3077,
      "Ġcapacity": 3078,
      "mon": 3079,
      "Ġlight": 3080,
      "Ġmodified": 3081,
      "Ġunlike": 3082,
      "Ġextensive": 3083,
      "Ġyields": 3084,
      "Ġcompilers": 3085,
      "Ġsyntac": 3086,
      "atch": 3087,
      "Ġwa": 3088,
      "aging": 3089,
      "Ġtopology": 3090,
      "Ġintu": 3091,
      "Ġinterval": 3092,
      "rices": 3093,
      "Ġguarantee": 3094,
      "13": 3095,
      "isk": 3096,
      "ipel": 3097,
      "Ġhandling": 3098,
      "Ġfactors": 3099,
      "Ġstatistics": 3100,
      "Ġzero": 3101,
      "Ġvolume": 3102,
      "ma": 3103,
      "acy": 3104,
      "Ġacm": 3105,
      "Ġdraw": 3106,
      "Ġdedu": 3107,
      "Ġcombines": 3108,
      "Ġdepends": 3109,
      "Ġactual": 3110,
      "Ġblocks": 3111,
      "Ġsimultaneously": 3112,
      "gener": 3113,
      "Ġcare": 3114,
      "Ġmaps": 3115,
      "Ġones": 3116,
      "Ġunknown": 3117,
      "Ġcoheren": 3118,
      "Ġdesigning": 3119,
      "Ġabstractions": 3120,
      "Ġintroduces": 3121,
      "Ġarticle": 3122,
      "ley": 3123,
      "Ġjust": 3124,
      "Ġsubject": 3125,
      "Ġstructural": 3126,
      "Ġcriteria": 3127,
      "enance": 3128,
      "Ġprimary": 3129,
      "Ġmaintenance": 3130,
      "Ġlayout": 3131,
      "hhhhhhhh": 3132,
      "Ġenable": 3133,
      "Ġextraction": 3134,
      "Ġsection": 3135,
      "Ġmaintaining": 3136,
      "Ġbelief": 3137,
      "ares": 3138,
      "entic": 3139,
      "forward": 3140,
      "Ġportable": 3141,
      "Ġpassing": 3142,
      "30": 3143,
      "Ġdial": 3144,
      "Ġforward": 3145,
      "Ġbelieve": 3146,
      "hic": 3147,
      "Ġbus": 3148,
      "izer": 3149,
      "Ġextre": 3150,
      "Ġgraphics": 3151,
      "Ġdifferences": 3152,
      "Ġsystematic": 3153,
      "Ġdatas": 3154,
      "Ġenergy": 3155,
      "Ġpackets": 3156,
      "Ġthreads": 3157,
      "Ġbranch": 3158,
      "Ġtransition": 3159,
      "Ġemer": 3160,
      "Ġgrid": 3161,
      "Ġfamily": 3162,
      "Ġwireless": 3163,
      "fig": 3164,
      "nos": 3165,
      "Ġturn": 3166,
      "Ġunit": 3167,
      "Ġintermediate": 3168,
      "Ġobserved": 3169,
      "20": 3170,
      "ml": 3171,
      "Ġclear": 3172,
      "Ġel": 3173,
      "Ġpositive": 3174,
      "Ġcommunications": 3175,
      "Ġcontroller": 3176,
      "Ġalgebraic": 3177,
      "day": 3178,
      "itions": 3179,
      "Ġmp": 3180,
      "Ġstored": 3181,
      "pto": 3182,
      "Ġessential": 3183,
      "Ġpromis": 3184,
      "Ġinstructions": 3185,
      "Ġgeometry": 3186,
      "Ġoffers": 3187,
      "ng": 3188,
      "Ġproduced": 3189,
      "Ġinternational": 3190,
      "Ġauthentic": 3191,
      "Ġdetails": 3192,
      "Ġearly": 3193,
      "appro": 3194,
      "Ġsafety": 3195,
      "fect": 3196,
      "sol": 3197,
      "ympto": 3198,
      "jo": 3199,
      "Ġcs": 3200,
      "Ġweights": 3201,
      "Ġquad": 3202,
      "Ġparticip": 3203,
      "Ġincreases": 3204,
      "Ġiniti": 3205,
      "Ġran": 3206,
      "ands": 3207,
      "Ġarise": 3208,
      "Ġactivity": 3209,
      "Ġspecify": 3210,
      "ope": 3211,
      "Ġutilization": 3212,
      "Ġlibr": 3213,
      "Ġsegmentation": 3214,
      "Ġsampling": 3215,
      "ira": 3216,
      "Ġoffer": 3217,
      "ody": 3218,
      "phas": 3219,
      "Ġframe": 3220,
      "Ġlinks": 3221,
      "regular": 3222,
      "Ġcausal": 3223,
      "Ġassignment": 3224,
      "Ġexpressions": 3225,
      "Ġtoo": 3226,
      "Ġwavelet": 3227,
      "bm": 3228,
      "Ġquick": 3229,
      "Ġinvolving": 3230,
      "cri": 3231,
      "len": 3232,
      "ises": 3233,
      "Ġden": 3234,
      "Ġindust": 3235,
      "00014": 3236,
      "Ġhence": 3237,
      "Ġneighb": 3238,
      "Ġsynchronous": 3239,
      "Ġswitch": 3240,
      "structured": 3241,
      "mul": 3242,
      "Ġconj": 3243,
      "Ġconvex": 3244,
      "Ġrecon": 3245,
      "Ġevaluating": 3246,
      "Ġdiskussion": 3247,
      "Ġformula": 3248,
      "Ġteam": 3249,
      "Ġsurvey": 3250,
      "pc": 3251,
      "Ġhaving": 3252,
      "Ġexch": 3253,
      "Ġmoving": 3254,
      "Ġcamera": 3255,
      "Ġlibraries": 3256,
      "case": 3257,
      "independent": 3258,
      "Ġmixed": 3259,
      "une": 3260,
      "Ġunique": 3261,
      "Ġdiff": 3262,
      "Ġintroduction": 3263,
      "Ġintegrating": 3264,
      "Ġanalyzing": 3265,
      "Ġchanging": 3266,
      "Ġqueue": 3267,
      "Ġsess": 3268,
      "Ġdensity": 3269,
      "Ġbases": 3270,
      "Ġmodern": 3271,
      "Ġfunctionality": 3272,
      "Ġplanar": 3273,
      "Ġattack": 3274,
      "Ġtreat": 3275,
      "Ġcomparing": 3276,
      "sa": 3277,
      "Ġsoc": 3278,
      "unately": 3279,
      "Ġrational": 3280,
      "Ġtypical": 3281,
      "plan": 3282,
      "Ġinputs": 3283,
      "Ġdeclarative": 3284,
      "Ġface": 3285,
      "Ġnet": 3286,
      "Ġhol": 3287,
      "Ġrig": 3288,
      "Ġfeasible": 3289,
      "determ": 3290,
      "la": 3291,
      "Ġcp": 3292,
      "ister": 3293,
      "igu": 3294,
      "Ġcolor": 3295,
      "Ġsmaller": 3296,
      "Ġcontrolled": 3297,
      "Ġbalancing": 3298,
      "Ġenhance": 3299,
      "Ġincomplete": 3300,
      "17": 3301,
      "down": 3302,
      "ground": 3303,
      "hard": 3304,
      "using": 3305,
      "Ġasympto": 3306,
      "ructive": 3307,
      "Ġsimulator": 3308,
      "Ġincreased": 3309,
      "Ġindexing": 3310,
      "Ġhypothesis": 3311,
      "Ġelectronic": 3312,
      "keli": 3313,
      "Ġthresh": 3314,
      "Ġbits": 3315,
      "ectors": 3316,
      "Ġdesired": 3317,
      "Ġgenerally": 3318,
      "Ġyield": 3319,
      "Ġguide": 3320,
      "Ġperceptual": 3321,
      "Ġvehic": 3322,
      "Ġcombinatorial": 3323,
      "kelihood": 3324,
      "inating": 3325,
      "Ġschedule": 3326,
      "Ġevolutionary": 3327,
      "tree": 3328,
      "Ġtight": 3329,
      "Ġpipel": 3330,
      "Ġperspective": 3331,
      "Ġdependencies": 3332,
      "Ġlack": 3333,
      "Ġ20": 3334,
      "Ġconceptual": 3335,
      "Ġdifference": 3336,
      "Ġquestions": 3337,
      "Ġannot": 3338,
      "Ġconditional": 3339,
      "ifies": 3340,
      "Ġassist": 3341,
      "Ġquite": 3342,
      "Ġabove": 3343,
      "Ġcharacterize": 3344,
      "Ġanalyzed": 3345,
      "Ġbenchmarks": 3346,
      "Ġplacement": 3347,
      "bound": 3348,
      "Ġwhole": 3349,
      "Ġdescribing": 3350,
      "Ġexten": 3351,
      "Ġcolle": 3352,
      "Ġinterpreted": 3353,
      "Ġattempt": 3354,
      "lay": 3355,
      "tures": 3356,
      "Ġpor": 3357,
      "Ġlist": 3358,
      "Ġunfort": 3359,
      "Ġlet": 3360,
      "Ġround": 3361,
      "defin": 3362,
      "theore": 3363,
      "Ġextends": 3364,
      "Ġremo": 3365,
      "Ġbrow": 3366,
      "Ġincreasingly": 3367,
      "Ġacquis": 3368,
      "Ġchallenges": 3369,
      "oti": 3370,
      "tr": 3371,
      "zation": 3372,
      "onic": 3373,
      "Ġexpect": 3374,
      "Ġconsum": 3375,
      "Ġlikely": 3376,
      "Ġexploiting": 3377,
      "Ġinfrastructure": 3378,
      "Ġair": 3379,
      "sian": 3380,
      "Ġbias": 3381,
      "Ġbecomes": 3382,
      "Ġmedi": 3383,
      "Ġstreams": 3384,
      "Ġunfortunately": 3385,
      "Ġtechnologies": 3386,
      "Ġdecid": 3387,
      "Ġcontaining": 3388,
      "words": 3389,
      "lenec": 3390,
      "ged": 3391,
      "Ġff": 3392,
      "itude": 3393,
      "Ġbur": 3394,
      "Ġstack": 3395,
      "exts": 3396,
      "Ġhypothes": 3397,
      "Ġhosts": 3398,
      "Ġexplanation": 3399,
      "Ġsyntactic": 3400,
      "Ġic": 3401,
      "Ġprom": 3402,
      "Ġfortran": 3403,
      "Ġgaus": 3404,
      "complete": 3405,
      "Ġidentification": 3406,
      "Ġcontained": 3407,
      "Ġarrays": 3408,
      "Ġsizes": 3409,
      "Ġcut": 3410,
      "Ġreser": 3411,
      "osen": 3412,
      "Ġtransparent": 3413,
      "Ġbottlenec": 3414,
      "Ġatomic": 3415,
      "Ġdistingu": 3416,
      "Ġtoolk": 3417,
      "Ġdirection": 3418,
      "Ġdistinguish": 3419,
      "da": 3420,
      "iom": 3421,
      "organ": 3422,
      "Ġinsp": 3423,
      "Ġperce": 3424,
      "Ġscalability": 3425,
      "Ġclusters": 3426,
      "..": 3427,
      "04": 3428,
      "bigu": 3429,
      "ople": 3430,
      "tative": 3431,
      "inates": 3432,
      "Ġda": 3433,
      "Ġconges": 3434,
      "Ġinteger": 3435,
      "Ġdevice": 3436,
      "Ġappeared": 3437,
      "Ġdialog": 3438,
      "Ġcongestion": 3439,
      "Ġsend": 3440,
      "Ġcru": 3441,
      "Ġinform": 3442,
      "acle": 3443,
      "Ġcombine": 3444,
      "Ġjoin": 3445,
      "Ġuncertainty": 3446,
      "Ġacquisition": 3447,
      "Ġmodeled": 3448,
      "Ġetc": 3449,
      "88": 3450,
      "Ġbar": 3451,
      "Ġhead": 3452,
      "Ġcompact": 3453,
      "Ġaddressed": 3454,
      "hed": 3455,
      "Ġpure": 3456,
      "Ġintended": 3457,
      "Ġemphas": 3458,
      "Ġsuccessfully": 3459,
      "uzzy": 3460,
      "Ġcogn": 3461,
      "Ġstyle": 3462,
      "Ġrelax": 3463,
      "Ġoptimizing": 3464,
      "Ġ1991": 3465,
      "Ġassume": 3466,
      "Ġdelivery": 3467,
      "Ġnamely": 3468,
      "irable": 3469,
      "sch": 3470,
      "Ġdown": 3471,
      "Ġrepe": 3472,
      "Ġsubsequ": 3473,
      "Ġsimpler": 3474,
      "Ġaffect": 3475,
      "Ġcoherence": 3476,
      "dd": 3477,
      "pol": 3478,
      "ancy": 3479,
      "Ġmeasured": 3480,
      "Ġbenefit": 3481,
      "Ġpeople": 3482,
      "Ġtrue": 3483,
      "Ġpiec": 3484,
      "Ġgovernment": 3485,
      "aly": 3486,
      "iling": 3487,
      "Ġexpensive": 3488,
      "Ġcommonly": 3489,
      "Ġdelays": 3490,
      "Ġcompletely": 3491,
      "Ġselected": 3492,
      "Ġchannels": 3493,
      "Ġmetrics": 3494,
      "Ġclosed": 3495,
      "Ġkinds": 3496,
      "Ġprefetching": 3497,
      "Ġpromising": 3498,
      "Ġrely": 3499,
      "Ġregister": 3500,
      "Ġgradi": 3501,
      "Ġsummar": 3502,
      "aling": 3503,
      "Ġinher": 3504,
      "Ġpoor": 3505,
      "Ġanalytical": 3506,
      "Ġ1997": 3507,
      "ounts": 3508,
      "Ġirregular": 3509,
      "Ġdimensions": 3510,
      "Ġsafe": 3511,
      "Ġsplit": 3512,
      "Ġtable": 3513,
      "pped": 3514,
      "ili": 3515,
      "Ġkind": 3516,
      "Ġreplication": 3517,
      "Ġsoph": 3518,
      "Ġextreme": 3519,
      "vm": 3520,
      "reh": 3521,
      "Ġstore": 3522,
      "Ġnote": 3523,
      "Ġexecuted": 3524,
      "Ġpotentially": 3525,
      "Ġattribute": 3526,
      "Ġexactly": 3527,
      "Ġpenal": 3528,
      "Ġconduct": 3529,
      "Ġcompreh": 3530,
      "Ġoptimized": 3531,
      "Ġpropagation": 3532,
      "Ġrequirement": 3533,
      "Ġibm": 3534,
      "Ġspeak": 3535,
      "Ġtexture": 3536,
      "Ġedges": 3537,
      "Ġinflu": 3538,
      "Ġdiagnos": 3539,
      "sen": 3540,
      "Ġspon": 3541,
      "aced": 3542,
      "Ġmatrices": 3543,
      "Ġachieving": 3544,
      "Ġdefinitions": 3545,
      "Ġclassifiers": 3546,
      "const": 3547,
      "thread": 3548,
      "Ġchosen": 3549,
      "Ġplatform": 3550,
      "Ġlife": 3551,
      ").\"": 3552,
      "11": 3553,
      "Ġfrag": 3554,
      "Ġreferences": 3555,
      "Ġbeg": 3556,
      "Ġrepresents": 3557,
      "Ġdetermined": 3558,
      "Ġfaults": 3559,
      "Ġdemonstrates": 3560,
      "Ġspan": 3561,
      "Ġexpert": 3562,
      "Ġproposes": 3563,
      "Ġdirections": 3564,
      "Ġexists": 3565,
      "Ġquantitative": 3566,
      "Ġreliability": 3567,
      "Ġconclude": 3568,
      "air": 3569,
      "come": 3570,
      "ns": 3571,
      "rim": 3572,
      "iness": 3573,
      "Ġbre": 3574,
      "Ġplane": 3575,
      "Ġcycle": 3576,
      "Ġcollaborative": 3577,
      "Ġsophistic": 3578,
      "ci": 3579,
      "cm": 3580,
      "ners": 3581,
      "Ġcour": 3582,
      "Ġconstrained": 3583,
      "Ġmonot": 3584,
      "Ġcreating": 3585,
      "Ġcarri": 3586,
      "Ġpriority": 3587,
      "Ġpublish": 3588,
      "Ġsuggests": 3589,
      "bl": 3590,
      "Ġnor": 3591,
      "Ġobst": 3592,
      "Ġgenerates": 3593,
      "Ġvertices": 3594,
      "Ġviewed": 3595,
      "Ġencoding": 3596,
      "contro": 3597,
      "Ġassembly": 3598,
      "vable": 3599,
      "urations": 3600,
      "program": 3601,
      "Ġmembership": 3602,
      "theoretic": 3603,
      "dom": 3604,
      "use": 3605,
      "Ġdisks": 3606,
      "Ġavailability": 3607,
      "Ġdegra": 3608,
      "Ġpublic": 3609,
      "Ġensure": 3610,
      "Ġexploration": 3611,
      "Ġproving": 3612,
      "Ġ15": 3613,
      "Ġcalls": 3614,
      "Ġlearns": 3615,
      "Ġsuperior": 3616,
      "Ġprinciple": 3617,
      "Ġscenari": 3618,
      "uc": 3619,
      "edy": 3620,
      "Ġstring": 3621,
      "direct": 3622,
      "Ġdecre": 3623,
      "Ġpairs": 3624,
      "Ġpersonal": 3625,
      "graph": 3626,
      "Ġinters": 3627,
      "Ġpay": 3628,
      "Ġcpu": 3629,
      "pg": 3630,
      "Ġca": 3631,
      "Ġproved": 3632,
      "Ġlast": 3633,
      "ortun": 3634,
      "Ġfinal": 3635,
      "Ġgaussian": 3636,
      "Ġsqu": 3637,
      "oded": 3638,
      "Ġlikelihood": 3639,
      "Ġmagnitude": 3640,
      "fl": 3641,
      "Ġstere": 3642,
      "Ġwho": 3643,
      "Ġlocally": 3644,
      "Ġmeaning": 3645,
      "Ġequivalence": 3646,
      "Ġsorting": 3647,
      "itance": 3648,
      "urally": 3649,
      "Ġarri": 3650,
      "Ġspecifying": 3651,
      "Ġcorpus": 3652,
      "Ġminimization": 3653,
      "Ġexperiences": 3654,
      "Ġfacilitate": 3655,
      "Ġopportun": 3656,
      "gt": 3657,
      "ros": 3658,
      "Ġfuzzy": 3659,
      "Ġwid": 3660,
      "Ġnest": 3661,
      "ixel": 3662,
      "Ġproduction": 3663,
      "Ġdependent": 3664,
      "Ġlexical": 3665,
      "Ġaugment": 3666,
      "dec": 3667,
      "Ġga": 3668,
      "Ġsuff": 3669,
      "antum": 3670,
      "Ġexpressive": 3671,
      "Ġrecom": 3672,
      "Ġprobabilities": 3673,
      "Ġexhibit": 3674,
      "vent": 3675,
      "Ġrevision": 3676,
      "Ġget": 3677,
      "rip": 3678,
      "Ġsuite": 3679,
      "Ġoptical": 3680,
      "Ġspecialized": 3681,
      "Ġconnectionist": 3682,
      "Ġswitching": 3683,
      "Ġexistence": 3684,
      "Ġexponential": 3685,
      "Ġquickly": 3686,
      "arp": 3687,
      "Ġmax": 3688,
      "istrib": 3689,
      "Ġcreated": 3690,
      "Ġpriv": 3691,
      "Ġiteration": 3692,
      "model": 3693,
      "Ġvarying": 3694,
      "ratic": 3695,
      "Ġpersistent": 3696,
      "term": 3697,
      "Ġdefa": 3698,
      "Ġsubstan": 3699,
      "ithmetic": 3700,
      "passing": 3701,
      "sy": 3702,
      "ren": 3703,
      "ards": 3704,
      "Ġevolving": 3705,
      "Ġworkstation": 3706,
      "Ġgreater": 3707,
      "Ġdistinct": 3708,
      "Ġsophisticated": 3709,
      "Ġmodifications": 3710,
      "adap": 3711,
      "Ġarithmetic": 3712,
      "Ġoptimistic": 3713,
      "Ġreturn": 3714,
      "ready": 3715,
      "Ġnecessarily": 3716,
      "Ġsynthes": 3717,
      "Ġcriterion": 3718,
      "Ġchallenge": 3719,
      "Ġinser": 3720,
      "Ġmed": 3721,
      "Ġtraces": 3722,
      "Ġconstructive": 3723,
      "Ġvariant": 3724,
      "Ġexecute": 3725,
      "ferred": 3726,
      "Ġtoolkit": 3727,
      "ious": 3728,
      "Ġstable": 3729,
      "Ġdesirable": 3730,
      "Ġrequiring": 3731,
      "Ġcommunity": 3732,
      "Ġaccesses": 3733,
      "Ġcomputationally": 3734,
      "Ġmeasurement": 3735,
      "Ġsegments": 3736,
      "Ġemployed": 3737,
      "text": 3738,
      "Ġslic": 3739,
      "arities": 3740,
      "Ġboundary": 3741,
      "Ġlearner": 3742,
      "Ġjoint": 3743,
      "Ġpopulation": 3744,
      "Ġinfinite": 3745,
      "Ġalready": 3746,
      "Ġusage": 3747,
      "ube": 3748,
      "Ġsubstanti": 3749,
      "Ġgrants": 3750,
      "ba": 3751,
      "cal": 3752,
      "isy": 3753,
      "Ġtoday": 3754,
      "rict": 3755,
      "Ġformalism": 3756,
      "Ġbackground": 3757,
      "Ġnegative": 3758,
      "Ġbriefly": 3759,
      "Ġlingu": 3760,
      "pers": 3761,
      "Ġbeh": 3762,
      "Ġdiskip": 3763,
      "Ġframes": 3764,
      "Ġapproximations": 3765,
      "Ġreconfig": 3766,
      "Ġgradient": 3767,
      "Ġrich": 3768,
      "Ġleg": 3769,
      "Ġquantum": 3770,
      "Ġkeywords": 3771,
      "Ġjob": 3772,
      "Ġindependently": 3773,
      "ectives": 3774,
      "Ġpurposes": 3775,
      "Ġprogramrs": 3776,
      "Ġweighted": 3777,
      "Ġaxiom": 3778,
      "autom": 3779,
      "Ġauthentication": 3780,
      "18": 3781,
      "rep": 3782,
      "Ġfel": 3783,
      "Ġhar": 3784,
      "Ġshare": 3785,
      "ade": 3786,
      "Ġscheduler": 3787,
      "Ġadded": 3788,
      "Ġderiv": 3789,
      "Ġsites": 3790,
      "Ġprecision": 3791,
      "Ġgrammar": 3792,
      "Ġanimation": 3793,
      "ngth": 3794,
      "Ġisol": 3795,
      "Ġphen": 3796,
      "Ġcomparable": 3797,
      "defined": 3798,
      "Ġsubstantial": 3799,
      ",\"\"": 3800,
      "bms": 3801,
      "ulated": 3802,
      "utter": 3803,
      "Ġ12": 3804,
      "Ġotherwise": 3805,
      "Ġprimitive": 3806,
      "Ġlists": 3807,
      "Ġmar": 3808,
      "itory": 3809,
      "Ġber": 3810,
      "Ġshif": 3811,
      "Ġdiskrim": 3812,
      "Ġserial": 3813,
      "writing": 3814,
      "16": 3815,
      "ou": 3816,
      "purp": 3817,
      "Ġ'": 3818,
      "atures": 3819,
      "Ġdic": 3820,
      "Ġmd": 3821,
      "Ġhis": 3822,
      "Ġlocations": 3823,
      "Ġconfigurations": 3824,
      "Ġselecting": 3825,
      "be": 3826,
      "tex": 3827,
      "Ġcore": 3828,
      "Ġtraject": 3829,
      "valid": 3830,
      "Ġnoisy": 3831,
      "Ġoperational": 3832,
      "Ġregist": 3833,
      "Ġpruning": 3834,
      "Ġminimizing": 3835,
      "Ġdefining": 3836,
      "Ġdefense": 3837,
      "Ġstrength": 3838,
      "Ġtag": 3839,
      "Ġcle": 3840,
      "Ġimplications": 3841,
      "Ġenab": 3842,
      "Ġpointer": 3843,
      "ourse": 3844,
      "Ġdivid": 3845,
      "Ġhttp": 3846,
      "Ġthreshold": 3847,
      "purpose": 3848,
      "03": 3849,
      "yond": 3850,
      "Ġaround": 3851,
      "row": 3852,
      "Ġbra": 3853,
      "Ġonce": 3854,
      "Ġadmission": 3855,
      "Ġbox": 3856,
      "ography": 3857,
      "Ġep": 3858,
      "Ġprolog": 3859,
      "abst": 3860,
      "Ġtrained": 3861,
      "dependence": 3862,
      "Ġmarket": 3863,
      "Ġstraight": 3864,
      "86": 3865,
      "morph": 3866,
      "Ġdest": 3867,
      "times": 3868,
      "Ġadequ": 3869,
      "Ġcla": 3870,
      "Ġrecover": 3871,
      "Ġground": 3872,
      "Ġdifferential": 3873,
      "Ġelimination": 3874,
      "Ġfrequently": 3875,
      "Ġmixture": 3876,
      "Ġhypotheses": 3877,
      "inated": 3878,
      "Ġpur": 3879,
      "Ġmodification": 3880,
      "Ġperfect": 3881,
      "Ġvariants": 3882,
      "Ġrouter": 3883,
      "iner": 3884,
      "Ġlines": 3885,
      "Ġrespective": 3886,
      "tolerant": 3887,
      "Ġcrucial": 3888,
      "Ġil": 3889,
      "Ġaid": 3890,
      "Ġpixel": 3891,
      "omen": 3892,
      "Ġsignals": 3893,
      "Ġpredictions": 3894,
      "Ġkeep": 3895,
      "Ġlayers": 3896,
      "knowledge": 3897,
      "Ġformulas": 3898,
      "Ġaspect": 3899,
      "Ġloops": 3900,
      "Ġfitness": 3901,
      "Ġtradeoffs": 3902,
      "state": 3903,
      "Ġeu": 3904,
      "Ġorth": 3905,
      "Ġpresentation": 3906,
      "Ġfee": 3907,
      "proced": 3908,
      "fully": 3909,
      "thetic": 3910,
      "Ġdirected": 3911,
      "Ġrobustness": 3912,
      "Ġidentified": 3913,
      "Ġdebugging": 3914,
      "22": 3915,
      "cer": 3916,
      "Ġrele": 3917,
      "Ġadding": 3918,
      "Ġmanu": 3919,
      "Ġdiskourse": 3920,
      "Ġpropos": 3921,
      "Ġimper": 3922,
      "Ġallowed": 3923,
      "valued": 3924,
      "Ġthereby": 3925,
      "Ġexploits": 3926,
      "Ġlater": 3927,
      "shop": 3928,
      "multi": 3929,
      "ryp": 3930,
      "set": 3931,
      "zed": 3932,
      "Ġcaches": 3933,
      "Ġsubstantially": 3934,
      "land": 3935,
      "Ġsix": 3936,
      "alk": 3937,
      "Ġvariations": 3938,
      "Ġparametric": 3939,
      "Ġflu": 3940,
      "Ġindustri": 3941,
      "au": 3942,
      "ember": 3943,
      "Ġrecurrent": 3944,
      "Ġillum": 3945,
      "Ġaccurately": 3946,
      "Ġneighbor": 3947,
      "Ġcognitive": 3948,
      "Ġcompile": 3949,
      "Ġsearching": 3950,
      "Ġsciences": 3951,
      "Ġmathematic": 3952,
      "Ġobservations": 3953,
      "Ġmigration": 3954,
      "approxim": 3955,
      "Ġgate": 3956,
      "forts": 3957,
      "Ġorient": 3958,
      "Ġagre": 3959,
      "Ġexecuting": 3960,
      "Ġ1990": 3961,
      "posi": 3962,
      "Ġcapability": 3963,
      "Ġcontributions": 3964,
      "Ġmanufact": 3965,
      "ah": 3966,
      "block": 3967,
      "Ġmassive": 3968,
      "raft": 3969,
      "uly": 3970,
      "Ġresol": 3971,
      "Ġsimply": 3972,
      "extended": 3973,
      "Ġintegrate": 3974,
      "Ġsensors": 3975,
      "Ġfrequency": 3976,
      "ashion": 3977,
      "Ġadjust": 3978,
      "directed": 3979,
      "cor": 3980,
      "Ġ#": 3981,
      "Ġreve": 3982,
      "Ġdele": 3983,
      "prop": 3984,
      "Ġconcent": 3985,
      "teness": 3986,
      "Ġdifficulty": 3987,
      "Ġsubsystem": 3988,
      "Ġefforts": 3989,
      "Ġstarting": 3990,
      "Ġredundant": 3991,
      "Ġexchange": 3992,
      "layer": 3993,
      "Ġfellow": 3994,
      "posium": 3995,
      "eff": 3996,
      "lec": 3997,
      "keley": 3998,
      "Ġpolyhed": 3999,
      "Ġbinding": 4000,
      "Ġfashion": 4001,
      "Ġdual": 4002,
      "Ġecon": 4003,
      "Ġonline": 4004,
      "acs": 4005,
      "Ġarpa": 4006,
      "Ġ16": 4007,
      "Ġuniversal": 4008,
      "Ġcorrectly": 4009,
      "Ġjobs": 4010,
      "Ġsymposium": 4011,
      "Ġnegoti": 4012,
      "Ġpublished": 4013,
      "work": 4014,
      "Ġfig": 4015,
      "mentally": 4016,
      "Ġseen": 4017,
      "Ġinteroper": 4018,
      "Ġdesigners": 4019,
      "Ġattempts": 4020,
      "Ġnaval": 4021,
      "Ġphenomen": 4022,
      "alf": 4023,
      "ansion": 4024,
      "ices": 4025,
      "Ġhad": 4026,
      "resolution": 4027,
      "elves": 4028,
      "Ġstr": 4029,
      "Ġstart": 4030,
      "Ġvectors": 4031,
      "Ġreports": 4032,
      "Ġformat": 4033,
      "Ġnaturally": 4034,
      "Ġcorporation": 4035,
      "33": 4036,
      "sem": 4037,
      "Ġwhy": 4038,
      "Ġinterpol": 4039,
      "Ġdiverse": 4040,
      "Ġseparation": 4041,
      "Ġtermination": 4042,
      "Ġidentifying": 4043,
      "Ġrobotic": 4044,
      "super": 4045,
      "Ġlinguistic": 4046,
      "abstract": 4047,
      "ai": 4048,
      "iable": 4049,
      "etch": 4050,
      "Ġmac": 4051,
      "Ġincon": 4052,
      "Ġprotection": 4053,
      "vice": 4054,
      "Ġoutline": 4055,
      "Ġfocuses": 4056,
      "Ġperiodic": 4057,
      "Ġinheritance": 4058,
      "real": 4059,
      "Ġofficial": 4060,
      "Ġflo": 4061,
      "Ġdram": 4062,
      "Ġmass": 4063,
      "quer": 4064,
      "performs": 4065,
      "Ġsemi": 4066,
      "Ġassociation": 4067,
      "Ġmotivated": 4068,
      "Ġworkloads": 4069,
      "Ġdatasets": 4070,
      "Ġbeyond": 4071,
      "Ġrang": 4072,
      "Ġsynthetic": 4073,
      "Ġpolymorph": 4074,
      "Ġmanager": 4075,
      "Ġlatter": 4076,
      "speed": 4077,
      "Ġextensible": 4078,
      "Ġclaim": 4079,
      "ptive": 4080,
      "Ġsite": 4081,
      "Ġgap": 4082,
      "Ġdiskon": 4083,
      "Ġcollective": 4084,
      "points": 4085,
      "Ġobservation": 4086,
      "Ġordered": 4087,
      "Ġcoupled": 4088,
      "langu": 4089,
      "mo": 4090,
      "Ġfive": 4091,
      "arpa": 4092,
      "Ġeig": 4093,
      "Ġcompet": 4094,
      "Ġunified": 4095,
      "Ġ100": 4096,
      "Ġpredictive": 4097,
      "Ġequation": 4098,
      "processing": 4099,
      "Ġchoose": 4100,
      "Ġorders": 4101,
      "Ġdemands": 4102,
      "lsi": 4103,
      "Ġsn": 4104,
      "Ġuntil": 4105,
      "Ġexperts": 4106,
      "Ġschedules": 4107,
      "Ġdecomp": 4108,
      "Ġcells": 4109,
      "Ġcarried": 4110,
      "procedural": 4111,
      "mail": 4112,
      "arity": 4113,
      "Ġhold": 4114,
      "Ġcompress": 4115,
      "Ġapplies": 4116,
      "Ġmode": 4117,
      "Ġoriented": 4118,
      "Ġnever": 4119,
      "Ġpredicate": 4120,
      "Ġhierarchies": 4121,
      "Ġindustrial": 4122,
      "pite": 4123,
      "Ġalign": 4124,
      "arest": 4125,
      "server": 4126,
      "urable": 4127,
      "Ġgradu": 4128,
      "Ġrelevance": 4129,
      "Ġconsisting": 4130,
      "Ġrapidly": 4131,
      "Ġquadratic": 4132,
      "did": 4133,
      "write": 4134,
      "Ġwww": 4135,
      "Ġmit": 4136,
      "Ġstability": 4137,
      "Ġintr": 4138,
      "Ġ25": 4139,
      "Ġoutperforms": 4140,
      "condition": 4141,
      "Ġapproximately": 4142,
      "Ġbehavioral": 4143,
      "Ġsurpr": 4144,
      "lusion": 4145,
      "Ġfacilities": 4146,
      "overed": 4147,
      "Ġcryptographic": 4148,
      "Ġsal": 4149,
      "Ġstrict": 4150,
      "Ġcontention": 4151,
      "ensus": 4152,
      "Ġextending": 4153,
      "Ġestablished": 4154,
      "Ġdetecting": 4155,
      "Ġvehicle": 4156,
      "Ġau": 4157,
      "ret": 4158,
      "Ġinequ": 4159,
      "Ġont": 4160,
      "ries": 4161,
      "seud": 4162,
      "Ġreprodu": 4163,
      "vial": 4164,
      "Ġextra": 4165,
      "volution": 4166,
      "plish": 4167,
      "erior": 4168,
      "Ġgrowing": 4169,
      "Ġplatforms": 4170,
      "Ġtrust": 4171,
      "Ġaccomplish": 4172,
      "alog": 4173,
      "ull": 4174,
      "Ġdespite": 4175,
      "Ġcoefficient": 4176,
      "Ġdiskover": 4177,
      "Ġsolver": 4178,
      "Ġplanners": 4179,
      "Ġcommunicate": 4180,
      "Ġlogics": 4181,
      "Ġestimating": 4182,
      "Ġinvolve": 4183,
      "Ġtaking": 4184,
      "Ġinterconnect": 4185,
      "Ġscenes": 4186,
      "data": 4187,
      "ship": 4188,
      "ater": 4189,
      "Ġcandid": 4190,
      "Ġconcrete": 4191,
      "Ġedit": 4192,
      "Ġcheckpoint": 4193,
      "Ġsatisfaction": 4194,
      "Ġcategories": 4195,
      "Ġtend": 4196,
      "Ġintegrity": 4197,
      "Ġfiltering": 4198,
      "Ġrepeated": 4199,
      "call": 4200,
      "with": 4201,
      "Ġfal": 4202,
      "Ġpose": 4203,
      "Ġworkshop": 4204,
      "Ġvariation": 4205,
      "predic": 4206,
      "Ġalternatives": 4207,
      "variate": 4208,
      "Ġgreatly": 4209,
      "Ġnearly": 4210,
      "Ġbottom": 4211,
      "grained": 4212,
      "Ġaward": 4213,
      "lets": 4214,
      "ectivity": 4215,
      "izable": 4216,
      "Ġparsing": 4217,
      "Ġreplicated": 4218,
      "Ġcoherent": 4219,
      "Ġconstit": 4220,
      "Ġ30": 4221,
      "Ġoverheads": 4222,
      "Ġlazy": 4223,
      "Ġdeductive": 4224,
      "lt": 4225,
      "opt": 4226,
      "rum": 4227,
      "eric": 4228,
      "Ġnets": 4229,
      "Ġreasonable": 4230,
      "Ġcharacterized": 4231,
      "Ġencryp": 4232,
      "Ġclosely": 4233,
      "Ġradios": 4234,
      "Ġreplace": 4235,
      "Ġstereo": 4236,
      "85": 4237,
      "unctive": 4238,
      "Ġoperate": 4239,
      "Ġchoices": 4240,
      "Ġchalleng": 4241,
      "Ġstrongly": 4242,
      "Ġfellowship": 4243,
      "Ġeigen": 4244,
      ".)": 4245,
      "col": 4246,
      "Ġintel": 4247,
      "Ġarm": 4248,
      "Ġamounts": 4249,
      "Ġconsiderable": 4250,
      "Ġrobotics": 4251,
      "Ġincorporate": 4252,
      "Ġcorrelation": 4253,
      "Ġcollections": 4254,
      "bu": 4255,
      "disk": 4256,
      "such": 4257,
      "tes": 4258,
      "Ġindependence": 4259,
      "Ġdense": 4260,
      "urb": 4261,
      "Ġclaus": 4262,
      "Ġexpansion": 4263,
      "Ġtract": 4264,
      "Ġrelies": 4265,
      "Ġvers": 4266,
      "Ġinvestigated": 4267,
      "Ġgreedy": 4268,
      "Ġcourse": 4269,
      "do": 4270,
      "Ġthems": 4271,
      "ans": 4272,
      "omput": 4273,
      "area": 4274,
      "Ġtravel": 4275,
      "Ġroute": 4276,
      "Ġthemselves": 4277,
      "dl": 4278,
      "Ġproc": 4279,
      "ecting": 4280,
      "Ġitems": 4281,
      "Ġvariance": 4282,
      "Ġlock": 4283,
      "Ġtempl": 4284,
      "ta": 4285,
      "rection": 4286,
      "Ġcros": 4287,
      "Ġbell": 4288,
      "Ġrewriting": 4289,
      "eless": 4290,
      "acing": 4291,
      "Ġmultidimensional": 4292,
      "Ġformally": 4293,
      "Ġinstru": 4294,
      "Ġphr": 4295,
      "Ġreasons": 4296,
      "Ġcollision": 4297,
      "Ġcounter": 4298,
      "Ġsummary": 4299,
      "ropy": 4300,
      "weight": 4301,
      "Ġextremely": 4302,
      "Ġbreak": 4303,
      "ql": 4304,
      "Ġside": 4305,
      "analy": 4306,
      "arithm": 4307,
      "Ġimplied": 4308,
      "Ġrepos": 4309,
      "Ġexpand": 4310,
      "Ġverify": 4311,
      "Ġgeneralize": 4312,
      "Ġcalif": 4313,
      "Ġcarry": 4314,
      "Ġsyntax": 4315,
      "Ġdiction": 4316,
      "kernel": 4317,
      "mend": 4318,
      "Ġfraction": 4319,
      "Ġdriven": 4320,
      "icon": 4321,
      "Ġcomplicated": 4322,
      "licity": 4323,
      "Ġscaling": 4324,
      "sibility": 4325,
      "Ġcopying": 4326,
      "design": 4327,
      "Ġillumination": 4328,
      "fied": 4329,
      "Ġtail": 4330,
      "Ġpic": 4331,
      "Ġexcl": 4332,
      "ured": 4333,
      "Ġoptimize": 4334,
      "Ġadvances": 4335,
      "Ġsupervised": 4336,
      "Ġreceiver": 4337,
      "Ġlisp": 4338,
      "Ġhistory": 4339,
      "track": 4340,
      "Ġrespectively": 4341,
      "supervised": 4342,
      "inking": 4343,
      "Ġprov": 4344,
      "amp": 4345,
      "Ġreplic": 4346,
      "ighting": 4347,
      "Ġtravers": 4348,
      "ips": 4349,
      "Ġvertex": 4350,
      "Ġasser": 4351,
      "Ġexamines": 4352,
      "Ġ94": 4353,
      "Ġsmoothing": 4354,
      "Ġinterconnection": 4355,
      "ornia": 4356,
      "adaptive": 4357,
      "Ġagreement": 4358,
      "language": 4359,
      "Ġdna": 4360,
      "ray": 4361,
      "Ġproposition": 4362,
      "oken": 4363,
      "Ġpermits": 4364,
      "Ġbottleneck": 4365,
      "Ġpseud": 4366,
      "Ġgest": 4367,
      "Ġvlsi": 4368,
      "Ġconstructions": 4369,
      "Ġsometimes": 4370,
      "Ġconser": 4371,
      "Ġanswers": 4372,
      "Ġsession": 4373,
      "Ġsurprising": 4374,
      "Ġcalifornia": 4375,
      "Ġfpg": 4376,
      "Ġspoken": 4377,
      "Ġboundaries": 4378,
      "Ġinterpret": 4379,
      "Ġeliminate": 4380,
      "Ġtolerance": 4381,
      "Ġsymmetric": 4382,
      "Ġreservation": 4383,
      "sensitive": 4384,
      "fit": 4385,
      "oph": 4386,
      "tri": 4387,
      "Ġinde": 4388,
      "Ġalgorithmic": 4389,
      "Ġnotions": 4390,
      "ularity": 4391,
      "output": 4392,
      "Ġemail": 4393,
      "Ġiri": 4394,
      "Ġphone": 4395,
      "Ġactually": 4396,
      "Ġrestrictions": 4397,
      "Ġcollaboration": 4398,
      "Ġreceived": 4399,
      "Ġstatements": 4400,
      "Ġbrowsing": 4401,
      "Ġdramatic": 4402,
      "lap": 4403,
      "rical": 4404,
      "aton": 4405,
      "Ġnam": 4406,
      "user": 4407,
      "Ġsum": 4408,
      "Ġselective": 4409,
      "Ġcoarse": 4410,
      "Ġcommand": 4411,
      "Ġjan": 4412,
      "Ġmanaging": 4413,
      "Ġchoosing": 4414,
      "Ġcontrollers": 4415,
      "Ġsuited": 4416,
      "Ġessentially": 4417,
      "Ġnaive": 4418,
      "Ġclean": 4419,
      "Ġcause": 4420,
      "mentation": 4421,
      "ford": 4422,
      "ogonal": 4423,
      "Ġcontact": 4424,
      "ager": 4425,
      "Ġconsensus": 4426,
      "Ġdetermines": 4427,
      "Ġtren": 4428,
      "Ġencount": 4429,
      "Ġdegrees": 4430,
      "Ġdefault": 4431,
      "propagation": 4432,
      "Ġthesis": 4433,
      "rob": 4434,
      "uth": 4435,
      "Ġgenerator": 4436,
      "Ġtyped": 4437,
      "Ġroutines": 4438,
      "Ġfacility": 4439,
      "Ġeasier": 4440,
      "Ġempirically": 4441,
      "Ġsuggested": 4442,
      "Ġincorporating": 4443,
      "Ġpossibly": 4444,
      "Ġfalse": 4445,
      "iv": 4446,
      "jects": 4447,
      "mp": 4448,
      "oura": 4449,
      "sec": 4450,
      "Ġtry": 4451,
      "Ġsat": 4452,
      "Ġbody": 4453,
      "stood": 4454,
      "utable": 4455,
      "loys": 4456,
      "value": 4457,
      "ibri": 4458,
      "Ġintegrates": 4459,
      "Ġmobility": 4460,
      "Ġparadigms": 4461,
      "Ġsymbol": 4462,
      "Ġaggregate": 4463,
      "going": 4464,
      "Ġaccommod": 4465,
      "Ġillustrated": 4466,
      "bounded": 4467,
      "Ġconducted": 4468,
      "87": 4469,
      "top": 4470,
      "Ġsun": 4471,
      "Ġproven": 4472,
      "ilities": 4473,
      "Ġpredicates": 4474,
      "Ġtestbed": 4475,
      "Ġexplores": 4476,
      "Ġscales": 4477,
      "Ġassumed": 4478,
      "Ġsensing": 4479,
      "Ġincorporated": 4480,
      "Ġcycles": 4481,
      "Ġmeshes": 4482,
      "Ġfeasibility": 4483,
      "Ġmultiplex": 4484,
      "Ġconcerned": 4485,
      "Ġberkeley": 4486,
      "first": 4487,
      "Ġstation": 4488,
      "acles": 4489,
      "Ġneur": 4490,
      "sored": 4491,
      "Ġsubdi": 4492,
      "Ġconsiders": 4493,
      "Ġemploys": 4494,
      "05": 4495,
      "89": 4496,
      "az": 4497,
      "dm": 4498,
      "tl": 4499,
      "inant": 4500,
      "Ġfore": 4501,
      "Ġmy": 4502,
      "Ġgather": 4503,
      "ilibri": 4504,
      "idence": 4505,
      "Ġmodify": 4506,
      "Ġcomputes": 4507,
      "Ġnetworking": 4508,
      "Ġshowed": 4509,
      "Ġovercome": 4510,
      "Ġconcer": 4511,
      "paramet": 4512,
      "Ġsamples": 4513,
      "Ġcomparisons": 4514,
      "Ġprojection": 4515,
      "Ġrecursion": 4516,
      "Ġdeliver": 4517,
      "Ġnested": 4518,
      "right": 4519,
      "Ġdim": 4520,
      "Ġhom": 4521,
      "Ġgames": 4522,
      "irm": 4523,
      "Ġdisj": 4524,
      "Ġpermit": 4525,
      "Ġcontin": 4526,
      "\"\".": 4527,
      "Ġlimits": 4528,
      "Ġlonger": 4529,
      "Ġslight": 4530,
      "monot": 4531,
      "Ġintuitive": 4532,
      "Ġburst": 4533,
      "]:": 4534,
      "Ġign": 4535,
      "Ġexamined": 4536,
      "Ġdepending": 4537,
      "Ġcreation": 4538,
      "Ġusefulness": 4539,
      "Ġfocused": 4540,
      "Ġmisses": 4541,
      "Ġclosure": 4542,
      "Ġcollected": 4543,
      "Ġsensitive": 4544,
      "Ġtreatment": 4545,
      "nf": 4546,
      "alities": 4547,
      "Ġacknow": 4548,
      "Ġmanage": 4549,
      "Ġdefines": 4550,
      "Ġdependency": 4551,
      "Ġshortest": 4552,
      "Ġacknowled": 4553,
      "25": 4554,
      "he": 4555,
      "Ġconvers": 4556,
      "otor": 4557,
      "Ġtimed": 4558,
      "Ġhighl": 4559,
      "Ġviol": 4560,
      "Ġexperimentally": 4561,
      "Ġmonte": 4562,
      "Ġ95": 4563,
      "Ġirre": 4564,
      "Ġdeadlock": 4565,
      "Ġ!": 4566,
      "ental": 4567,
      "ided": 4568,
      "Ġcontour": 4569,
      "Ġadopt": 4570,
      "phone": 4571,
      "Ġincrementally": 4572,
      "Ġarbitr": 4573,
      "Ġposterior": 4574,
      "Ġoccurs": 4575,
      "Ġrank": 4576,
      "called": 4577,
      "Ġchallenging": 4578,
      "Ġclauses": 4579,
      "Ġutter": 4580,
      "Ġhill": 4581,
      "Ġcompos": 4582,
      "Ġtradition": 4583,
      "Ġpropor": 4584,
      "Ġwhereas": 4585,
      "Ġcharacteristic": 4586,
      "Ġideal": 4587,
      "Ġteach": 4588,
      "Ġinfluence": 4589,
      "Ġdiagnosis": 4590,
      "Ġcomposed": 4591,
      "Ġdeform": 4592,
      "Ġprincipal": 4593,
      "Ġfewer": 4594,
      "Ġcoordinate": 4595,
      "mh": 4596,
      "Ġfix": 4597,
      "Ġinverse": 4598,
      "Ġshad": 4599,
      "Ġhash": 4600,
      "Ġsignatures": 4601,
      "Ġautomaton": 4602,
      "Ġreductions": 4603,
      "Ġrecognize": 4604,
      "Ġcarlo": 4605,
      "Ġoutputs": 4606,
      "Ġaffine": 4607,
      "Ġmovement": 4608,
      "Ġarguments": 4609,
      "Ġmanufacturing": 4610,
      "Ġpropositional": 4611,
      "'t": 4612,
      "Ġold": 4613,
      "Ġmill": 4614,
      "Ġland": 4615,
      "Ġcontexts": 4616,
      "Ġchap": 4617,
      "alls": 4618,
      "Ġnearest": 4619,
      "ourn": 4620,
      "Ġfollows": 4621,
      "Ġdeploy": 4622,
      "Ġdealing": 4623,
      "Ġredundancy": 4624,
      "Ġspeedups": 4625,
      "Ġbarri": 4626,
      "Ġradiosity": 4627,
      "gu": 4628,
      "Ġapr": 4629,
      "Ġintract": 4630,
      "Ġright": 4631,
      "Ġprogramm": 4632,
      "Ġequilibri": 4633,
      "Ġrouters": 4634,
      "Ġrestruct": 4635,
      "Ġorganizations": 4636,
      "Ġentropy": 4637,
      "Ġbecoming": 4638,
      "which": 4639,
      "Ġperception": 4640,
      "programming": 4641,
      "06": 4642,
      "ein": 4643,
      "hous": 4644,
      "tow": 4645,
      "Ġmb": 4646,
      "Ġprox": 4647,
      "Ġnames": 4648,
      "asi": 4649,
      "usti": 4650,
      "iding": 4651,
      "Ġacce": 4652,
      "Ġ11": 4653,
      "Ġimplements": 4654,
      "Ġoutperform": 4655,
      "cons": 4656,
      "Ġpackage": 4657,
      "Ġinvestigation": 4658,
      "Ġextracted": 4659,
      "Ġaggregation": 4660,
      "Ġsponsored": 4661,
      "01": 4662,
      "dem": 4663,
      "Ġsa": 4664,
      "Ġdimensional": 4665,
      "Ġonto": 4666,
      "Ġestimated": 4667,
      "Ġaddressing": 4668,
      "Ġspeaker": 4669,
      "Ġbegin": 4670,
      ":/": 4671,
      "ze": 4672,
      "Ġten": 4673,
      "onym": 4674,
      "Ġpus": 4675,
      "ulative": 4676,
      "oting": 4677,
      "Ġpac": 4678,
      "Ġencoura": 4679,
      "Ġcontrolling": 4680,
      "Ġemerging": 4681,
      "Ġscenarios": 4682,
      "Ġprovably": 4683,
      "Ġtraditionally": 4684,
      "gi": 4685,
      "system": 4686,
      "Ġmus": 4687,
      "ractive": 4688,
      "ulate": 4689,
      "Ġjud": 4690,
      "comm": 4691,
      "Ġcompiled": 4692,
      "Ġexplored": 4693,
      "Ġprimarily": 4694,
      "Ġcalib": 4695,
      "solving": 4696,
      "automatic": 4697,
      "Ġarbitrarily": 4698,
      "pf": 4699,
      "Ġtl": 4700,
      "Ġtens": 4701,
      "eness": 4702,
      "Ġfron": 4703,
      "Ġware": 4704,
      "Ġnas": 4705,
      "Ġstage": 4706,
      "Ġimplies": 4707,
      "Ġmolec": 4708,
      "ape": 4709,
      "Ġanalytic": 4710,
      "atories": 4711,
      "computer": 4712,
      "Ġpenalty": 4713,
      "constra": 4714,
      "Ġann": 4715,
      "Ġban": 4716,
      "sover": 4717,
      "software": 4718,
      "Ġserve": 4719,
      "Ġphon": 4720,
      "Ġattractive": 4721,
      "Ġ90": 4722,
      "Ġorigin": 4723,
      "Ġcorrespondence": 4724,
      "Ġbrid": 4725,
      "Ġconjunction": 4726,
      "Ġrelease": 4727,
      "atching": 4728,
      "Ġusual": 4729,
      "izers": 4730,
      "Ġapplicability": 4731,
      "Ġabs": 4732,
      "Ġdiskre": 4733,
      "Ġjusti": 4734,
      "Ġconnectivity": 4735,
      "Ġpointers": 4736,
      "Ġlaboratories": 4737,
      "www": 4738,
      "Ġsocial": 4739,
      "Ġasymptotic": 4740,
      "Ġnegotiation": 4741,
      "trivial": 4742,
      "lab": 4743,
      "Ġput": 4744,
      "ambigu": 4745,
      "Ġadvers": 4746,
      "Ġrelate": 4747,
      "Ġtheorems": 4748,
      "Ġmaximize": 4749,
      "Ġmissing": 4750,
      "Ġprecisely": 4751,
      "Ġregarding": 4752,
      "Ġspectrum": 4753,
      "Ġmpeg": 4754,
      "joint": 4755,
      "Ġrigid": 4756,
      "Ġstraightforward": 4757,
      "bing": 4758,
      "fe": 4759,
      "rated": 4760,
      "Ġtor": 4761,
      "ulations": 4762,
      "ulties": 4763,
      "Ġalph": 4764,
      "ides": 4765,
      ".\"\"": 4766,
      "Ġinterprocedural": 4767,
      "Ġacous": 4768,
      "Ġmultiagent": 4769,
      "Ġreality": 4770,
      "Ġsimplicity": 4771,
      "Ġdifficulties": 4772,
      "Ġsuccessive": 4773,
      "Ġdifferenti": 4774,
      "Ġcombinations": 4775,
      "Ġfacilitates": 4776,
      "Ġgranularity": 4777,
      "Ġpermut": 4778,
      "Ġemphasis": 4779,
      "calcul": 4780,
      "Ġilp": 4781,
      "Ġcandidate": 4782,
      "Ġversus": 4783,
      "Ġdimacs": 4784,
      "Ġwarehous": 4785,
      "24": 4786,
      "dynamic": 4787,
      "iability": 4788,
      "Ġri": 4789,
      "asp": 4790,
      "empor": 4791,
      "Ġincluded": 4792,
      "Ġinstanti": 4793,
      "Ġequal": 4794,
      "Ġcompletion": 4795,
      "Ġexploited": 4796,
      "mmetric": 4797,
      "Ġproducts": 4798,
      "Ġsentences": 4799,
      "Ġcomprehensive": 4800,
      "tracking": 4801,
      "Ġsubdivision": 4802,
      "Ġapril": 4803,
      "ker": 4804,
      "qos": 4805,
      "Ġap": 4806,
      "Ġos": 4807,
      "etts": 4808,
      "Ġalone": 4809,
      "Ġ13": 4810,
      "Ġexpres": 4811,
      "Ġnews": 4812,
      "Ġobjectives": 4813,
      "Ġgiving": 4814,
      "Ġadapted": 4815,
      "Ġtopic": 4816,
      "Ġfilters": 4817,
      "type": 4818,
      "Ġpolygon": 4819,
      "Ġwait": 4820,
      "Ġopportunities": 4821,
      "Ġenabling": 4822,
      "Ġmathematics": 4823,
      "Ġfigure": 4824,
      "cost": 4825,
      "network": 4826,
      "Ġdbms": 4827,
      "Ġease": 4828,
      "usetts": 4829,
      "achusetts": 4830,
      "Ġpert": 4831,
      "Ġunsupervised": 4832,
      "Ġadmin": 4833,
      "Ġjourn": 4834,
      "Ġpredicting": 4835,
      "Ġspeeds": 4836,
      "Ġmulticomput": 4837,
      "Ġportions": 4838,
      "Ġspanning": 4839,
      "Ġorthogonal": 4840,
      "Ġencryption": 4841,
      "Ġcrossover": 4842,
      "Ġdate": 4843,
      "Ġell": 4844,
      "Ġunn": 4845,
      "Ġviewpoint": 4846,
      "Ġdivision": 4847,
      "Ġsubsets": 4848,
      "Ġinsight": 4849,
      "Ġpriori": 4850,
      "Ġextracting": 4851,
      "Ġconflict": 4852,
      "Ġmedical": 4853,
      "):": 4854,
      "bur": 4855,
      "ky": 4856,
      "rating": 4857,
      "edom": 4858,
      "Ġretain": 4859,
      "Ġhalf": 4860,
      "Ġgp": 4861,
      "Ġoracle": 4862,
      "umer": 4863,
      "Ġcolum": 4864,
      "Ġconsidering": 4865,
      "ublish": 4866,
      "Ġevolve": 4867,
      "Ġutilize": 4868,
      "Ġpolynomials": 4869,
      "Ġoccurren": 4870,
      "Ġhelps": 4871,
      "Ġfindings": 4872,
      "Ġincorporates": 4873,
      "Ġenhanced": 4874,
      "trans": 4875,
      "Ġmassively": 4876,
      "Ġcoefficients": 4877,
      "neg": 4878,
      "Ġanne": 4879,
      "Ġled": 4880,
      "Ġroot": 4881,
      "Ġstudents": 4882,
      "aking": 4883,
      "Ġfav": 4884,
      "Ġencaps": 4885,
      "Ġvalidation": 4886,
      "Ġsettings": 4887,
      "Ġconcerns": 4888,
      "Ġfairness": 4889,
      "Ġdictionary": 4890,
      "Ġthous": 4891,
      "stra": 4892,
      "Ġconject": 4893,
      "Ġmapp": 4894,
      "Ġarises": 4895,
      "Ġsoft": 4896,
      "Ġphases": 4897,
      "Ġlattice": 4898,
      "Ġformulated": 4899,
      "Ġmonitor": 4900,
      "Ġ1989": 4901,
      "Ġskill": 4902,
      "Ġcurve": 4903,
      "Ġpossibility": 4904,
      "Ġconflicts": 4905,
      "Ġinvariant": 4906,
      "Ġadequate": 4907,
      "Ġencountered": 4908,
      "Ġadminist": 4909,
      "Ġtables": 4910,
      "Ġang": 4911,
      "Ġlan": 4912,
      "iles": 4913,
      "Ġvo": 4914,
      "Ġdoing": 4915,
      "Ġcompleteness": 4916,
      "Ġinvestigates": 4917,
      "Ġboost": 4918,
      "Ġnumerous": 4919,
      "Ġavoiding": 4920,
      "Ġsatisfies": 4921,
      "Ġbalance": 4922,
      "deterministic": 4923,
      "Ġjournal": 4924,
      "Ġmappings": 4925,
      "fa": 4926,
      "Ġ]": 4927,
      "Ġpron": 4928,
      "Ġoct": 4929,
      "ale": 4930,
      "Ġfill": 4931,
      "asc": 4932,
      "Ġdept": 4933,
      "Ġsignature": 4934,
      "Ġvalu": 4935,
      "Ġtopologies": 4936,
      "Ġupdated": 4937,
      "Ġchecks": 4938,
      "Ġscientist": 4939,
      "organizing": 4940,
      "Ġpurely": 4941,
      "Ġfloating": 4942,
      "Ġmassachusetts": 4943,
      "Ġcompressed": 4944,
      "Ġpc": 4945,
      "Ġdon": 4946,
      "Ġhorn": 4947,
      "Ġstages": 4948,
      "siveness": 4949,
      "Ġresid": 4950,
      "Ġroad": 4951,
      "Ġfinds": 4952,
      "Ġcaptures": 4953,
      "Ġinterested": 4954,
      "Ġspecialization": 4955,
      "sr": 4956,
      "wide": 4957,
      "where": 4958,
      "arc": 4959,
      "Ġmanual": 4960,
      "integ": 4961,
      "Ġjune": 4962,
      "Ġsubmitted": 4963,
      "Ġunderstood": 4964,
      "Ġcorba": 4965,
      "erman": 4966,
      "Ġii": 4967,
      "Ġstudying": 4968,
      "iddle": 4969,
      "Ġcurves": 4970,
      "Ġbehind": 4971,
      "Ġorientation": 4972,
      "Ġstrings": 4973,
      "Ġdiskreti": 4974,
      "cube": 4975,
      "fast": 4976,
      "Ġpress": 4977,
      "att": 4978,
      "Ġinfer": 4979,
      "chec": 4980,
      "sitivity": 4981,
      "Ġleft": 4982,
      "Ġmultithread": 4983,
      "Ġparallelization": 4984,
      "Ġdevelopers": 4985,
      "ferencing": 4986,
      "Ġviewing": 4987,
      "place": 4988,
      "Ġassuming": 4989,
      "Ġleading": 4990,
      "Ġsensory": 4991,
      "Ġindicates": 4992,
      "Ġcaused": 4993,
      "Ġswitches": 4994,
      "Ġsufficiently": 4995,
      "Ġremains": 4996,
      "Ġconsequences": 4997,
      "domain": 4998,
      "Ġintersection": 4999,
      "Ġrecommend": 5000,
      "Ġtractable": 5001,
      "arithmic": 5002,
      "Ġindeed": 5003,
      "Ġprogrammable": 5004,
      "://": 5005,
      "23": 5006,
      "length": 5007,
      "mach": 5008,
      "path": 5009,
      "sub": 5010,
      "Ġpric": 5011,
      "Ġcad": 5012,
      "Ġftp": 5013,
      "emble": 5014,
      "que": 5015,
      "Ġcompares": 5016,
      "ock": 5017,
      "Ġ14": 5018,
      "Ġverified": 5019,
      "Ġexecutable": 5020,
      "Ġmotivation": 5021,
      "Ġqueues": 5022,
      "Ġsubsequent": 5023,
      "vative": 5024,
      "ords": 5025,
      "Ġmorph": 5026,
      "leg": 5027,
      "Ġstrip": 5028,
      "Ġmatches": 5029,
      "Ġenglish": 5030,
      "Ġtopological": 5031,
      "Ġsimplify": 5032,
      "Ġlaw": 5033,
      "Ġgrowth": 5034,
      "Ġmedium": 5035,
      "pe": 5036,
      "Ġcbr": 5037,
      "edul": 5038,
      "Ġcha": 5039,
      "pher": 5040,
      "Ġgranted": 5041,
      "Ġbiological": 5042,
      "Ġquantify": 5043,
      "Ġcooperation": 5044,
      "Ġcomplementarity": 5045,
      "similar": 5046,
      "Ġobstacles": 5047,
      "Ġimperative": 5048,
      "Ġslightly": 5049,
      "ik": 5050,
      "map": 5051,
      "no": 5052,
      "Ġdynam": 5053,
      "uniform": 5054,
      "Ġdev": 5055,
      "Ġseem": 5056,
      "Ġnotation": 5057,
      "Ġproducing": 5058,
      "supp": 5059,
      "Ġcoupling": 5060,
      "Ġassessment": 5061,
      "validation": 5062,
      ")-": 5063,
      "md": 5064,
      "trees": 5065,
      "Ġram": 5066,
      "Ġtun": 5067,
      "Ġsig": 5068,
      "Ġmiddle": 5069,
      "impro": 5070,
      "Ġextent": 5071,
      "Ġrepresentative": 5072,
      "Ġdecide": 5073,
      "Ġconsiderably": 5074,
      "Ġmiss": 5075,
      "Ġavoids": 5076,
      "Ġordinary": 5077,
      "Ġreconstruct": 5078,
      "Ġinteracting": 5079,
      "Ġexception": 5080,
      "Ġmutual": 5081,
      "calculus": 5082,
      "rc": 5083,
      "Ġtut": 5084,
      "Ġsaving": 5085,
      "ised": 5086,
      "Ġali": 5087,
      "Ġdataflow": 5088,
      "rang": 5089,
      "Ġroll": 5090,
      "Ġsolves": 5091,
      "Ġeduc": 5092,
      "Ġdraft": 5093,
      "Ġassigned": 5094,
      "Ġparameterized": 5095,
      "Ġintuition": 5096,
      "Ġattacks": 5097,
      "Ġarrival": 5098,
      "Ġconcerning": 5099,
      "Ġacceler": 5100,
      "Ġfavor": 5101,
      "gr": 5102,
      "lin": 5103,
      "met": 5104,
      "side": 5105,
      "Ġcat": 5106,
      "acc": 5107,
      "Ġrough": 5108,
      "Ġneu": 5109,
      "Ġscope": 5110,
      "Ġjuly": 5111,
      "Ġgeneralizes": 5112,
      "Ġinduced": 5113,
      "Ġhumans": 5114,
      "Ġtransformed": 5115,
      "Ġfactorization": 5116,
      "Ġshapes": 5117,
      "board": 5118,
      "Ġgrammars": 5119,
      "Ġportion": 5120,
      "Ġgraduate": 5121,
      "Ġannealing": 5122,
      "gers": 5123,
      "non": 5124,
      "ots": 5125,
      "Ġtuning": 5126,
      "orous": 5127,
      "Ġfire": 5128,
      "Ġfaces": 5129,
      "iter": 5130,
      "arti": 5131,
      "Ġreform": 5132,
      "unic": 5133,
      "ipro": 5134,
      "Ġoptimizer": 5135,
      "Ġsteiner": 5136,
      "Ġmaximal": 5137,
      "Ġfollowed": 5138,
      "Ġprototypes": 5139,
      "Ġdrawn": 5140,
      "Ġnegation": 5141,
      "Ġdiagrams": 5142,
      "Ġcounting": 5143,
      "Ġcategory": 5144,
      "Ġchains": 5145,
      "Ġidentifies": 5146,
      "Ġparticipants": 5147,
      "controll": 5148,
      "Ġbrain": 5149,
      "Ġphenomena": 5150,
      "Ġchapter": 5151,
      "Ġrestructuring": 5152,
      "Ġacoustic": 5153,
      "ls": 5154,
      "mann": 5155,
      "ores": 5156,
      "Ġpol": 5157,
      "Ġinn": 5158,
      "Ġ17": 5159,
      "Ġgenerators": 5160,
      "Ġdesigner": 5161,
      "Ġtransitions": 5162,
      "exper": 5163,
      "Ġparallelizing": 5164,
      "Ġlargely": 5165,
      "Ġintroducing": 5166,
      "Ġequip": 5167,
      "Ġflat": 5168,
      "Ġpartitioned": 5169,
      "Ġreusable": 5170,
      "Ġperceptron": 5171,
      "hhhhhhhhhhhhhhhh": 5172,
      "Ġinterpolation": 5173,
      "Ġacknowledg": 5174,
      ");": 5175,
      "turing": 5176,
      "iss": 5177,
      "Ġdsm": 5178,
      "emic": 5179,
      "Ġplaced": 5180,
      "Ġoptimality": 5181,
      "Ġconfidence": 5182,
      "Ġderivation": 5183,
      "standing": 5184,
      "Ġcount": 5185,
      "Ġexplanations": 5186,
      "Ġwindows": 5187,
      "Ġshift": 5188,
      "Ġgathering": 5189,
      "distrib": 5190,
      "evolution": 5191,
      "gs": 5192,
      "utive": 5193,
      "Ġaver": 5194,
      "Ġwidth": 5195,
      "Ġanonym": 5196,
      "Ġspring": 5197,
      "ewise": 5198,
      "Ġactiv": 5199,
      "Ġpreced": 5200,
      "Ġdiffer": 5201,
      "Ġiden": 5202,
      "Ġflows": 5203,
      "local": 5204,
      "offs": 5205,
      "Ġpeak": 5206,
      "Ġconsequence": 5207,
      "Ġremoval": 5208,
      "Ġaugmented": 5209,
      "Ġconservative": 5210,
      "36": 5211,
      "80": 5212,
      "dation": 5213,
      "Ġpsy": 5214,
      "isation": 5215,
      "Ġrefer": 5216,
      "Ġintensive": 5217,
      "Ġmodes": 5218,
      "Ġdisp": 5219,
      "Ġcontents": 5220,
      "Ġmoves": 5221,
      "Ġautomation": 5222,
      "Ġambigu": 5223,
      "Ġexperimentation": 5224,
      "related": 5225,
      "Ġcauses": 5226,
      "Ġcentralized": 5227,
      "Ġstatement": 5228,
      "Ġlabeled": 5229,
      "Ġmonotone": 5230,
      "Ġsuffer": 5231,
      "Ġranging": 5232,
      "Ġirrelev": 5233,
      "Ġpsych": 5234,
      "))": 5235,
      "Ġairc": 5236,
      "onds": 5237,
      "Ġdr": 5238,
      "Ġday": 5239,
      "Ġec": 5240,
      "Ġprevent": 5241,
      "Ġoptions": 5242,
      "Ġdiskovered": 5243,
      "Ġray": 5244,
      "Ġidle": 5245,
      "bras": 5246,
      "Ġ93": 5247,
      "Ġorganized": 5248,
      "Ġportability": 5249,
      "Ġgains": 5250,
      "object": 5251,
      "Ġacceptable": 5252,
      "Ġblack": 5253,
      "Ġsatisfying": 5254,
      "Ġclearly": 5255,
      "Ġasymptotically": 5256,
      "Ġpursu": 5257,
      "Ġproposal": 5258,
      "correct": 5259,
      "demand": 5260,
      "26": 5261,
      "bility": 5262,
      "node": 5263,
      "Ġcard": 5264,
      "Ġinver": 5265,
      "Ġrepair": 5266,
      "Ġprecondition": 5267,
      "Ġneither": 5268,
      "Ġrecord": 5269,
      "Ġclassify": 5270,
      "Ġnotice": 5271,
      "Ġwhenever": 5272,
      "Ġpartitions": 5273,
      "Ġmaintains": 5274,
      "ordering": 5275,
      "Ġholds": 5276,
      "Ġrelaxation": 5277,
      "control": 5278,
      "Ġalignment": 5279,
      "monotonic": 5280,
      "Ġintractable": 5281,
      "Ġdynamical": 5282,
      "body": 5283,
      "eas": 5284,
      "fts": 5285,
      "Ġ).": 5286,
      "usive": 5287,
      "Ġexceed": 5288,
      "Ġcompr": 5289,
      "Ġrpc": 5290,
      "ocab": 5291,
      "Ġquor": 5292,
      "Ġplaus": 5293,
      "atible": 5294,
      "proble": 5295,
      "Ġphil": 5296,
      "Ġapproximating": 5297,
      "Ġcircum": 5298,
      "Ġphysically": 5299,
      "Ġappearance": 5300,
      "Ġindividuals": 5301,
      "Ġwriting": 5302,
      "Ġelectric": 5303,
      "Ġuniformly": 5304,
      "Ġtelephone": 5305,
      "Ġinvariants": 5306,
      "Ġffi": 5307,
      "Ġcheckpointing": 5308,
      "fold": 5309,
      "pack": 5310,
      "ye": 5311,
      "Ġpram": 5312,
      "Ġmarch": 5313,
      "Ġrect": 5314,
      "omorph": 5315,
      "Ġlam": 5316,
      "Ġimpos": 5317,
      "Ġunstructured": 5318,
      "Ġquasi": 5319,
      "phase": 5320,
      "veloc": 5321,
      "Ġ35": 5322,
      "Ġvisibility": 5323,
      "Ġobtaining": 5324,
      "Ġformalisms": 5325,
      "Ġencoded": 5326,
      "Ġcred": 5327,
      "Ġbeliefs": 5328,
      "Ġstatically": 5329,
      "Ġrigorous": 5330,
      "lapping": 5331,
      "Ġtrajectories": 5332,
      "Ġreveal": 5333,
      "communic": 5334,
      "Ġaircraft": 5335,
      "Ġrectang": 5336,
      "vs": 5337,
      "Ġsoci": 5338,
      "isc": 5339,
      "Ġhu": 5340,
      "rupt": 5341,
      "Ġpresenting": 5342,
      "Ġnetworked": 5343,
      "Ġtrain": 5344,
      "Ġmultivariate": 5345,
      "Ġtransforms": 5346,
      "Ġsimulate": 5347,
      "Ġlocks": 5348,
      "Ġ197": 5349,
      "Ġaccessed": 5350,
      "Ġrecognized": 5351,
      "Ġadditionally": 5352,
      "Ġformulate": 5353,
      "minim": 5354,
      "Ġpreserving": 5355,
      "Ġmeeting": 5356,
      "Ġdegradation": 5357,
      "Ġcalibration": 5358,
      "Ġmolecular": 5359,
      "27": 5360,
      "98": 5361,
      "link": 5362,
      "sat": 5363,
      "erti": 5364,
      "Ġwish": 5365,
      "Ġhome": 5366,
      "Ġpercent": 5367,
      "Ġunification": 5368,
      "Ġmotions": 5369,
      "Ġpreferences": 5370,
      "Ġmultilevel": 5371,
      "Ġsubjects": 5372,
      "Ġobserve": 5373,
      "Ġbacktracking": 5374,
      "Ġreceivers": 5375,
      "Ġtrig": 5376,
      "Ġstatus": 5377,
      "Ġdrive": 5378,
      "Ġsessions": 5379,
      "Ġpayment": 5380,
      "Ġprivate": 5381,
      "Ġstationary": 5382,
      "Ġcomposite": 5383,
      "Ġunnecess": 5384,
      "Ġequipment": 5385,
      "lp": 5386,
      "table": 5387,
      "Ġturing": 5388,
      "Ġtax": 5389,
      "requ": 5390,
      "Ġbis": 5391,
      "Ġreward": 5392,
      "Ġhund": 5393,
      "Ġdisambigu": 5394,
      "Ġshall": 5395,
      "Ġchip": 5396,
      "Ġarising": 5397,
      "Ġpreprocessing": 5398,
      "Ġverifying": 5399,
      "Ġsubtyp": 5400,
      "luding": 5401,
      "Ġlatencies": 5402,
      "Ġrandomly": 5403,
      "Ġbackpropagation": 5404,
      "Ġsubsum": 5405,
      "Ġalgebras": 5406,
      "Ġcellular": 5407,
      "Ġbranching": 5408,
      "Ġaccepted": 5409,
      "Ġguidance": 5410,
      "Ġinitially": 5411,
      "Ġregisters": 5412,
      "Ġpolymorphic": 5413,
      "Ġfpga": 5414,
      "Ġellip": 5415,
      "%.": 5416,
      "hor": 5417,
      "Ġ),": 5418,
      "reen": 5419,
      "Ġsd": 5420,
      "Ġsom": 5421,
      "Ġdarpa": 5422,
      "Ġwarp": 5423,
      "Ġmim": 5424,
      "Ġrever": 5425,
      "Ġprover": 5426,
      "Ġforces": 5427,
      "eme": 5428,
      "Ġparity": 5429,
      "Ġdeep": 5430,
      "Ġinterle": 5431,
      "Ġrealized": 5432,
      "Ġevaluates": 5433,
      "Ġadvance": 5434,
      "Ġglob": 5435,
      "Ġupdating": 5436,
      "Ġblocking": 5437,
      "Ġeliminating": 5438,
      "Ġargument": 5439,
      "Ġillustrates": 5440,
      "Ġdecrease": 5441,
      "analysis": 5442,
      "eduling": 5443,
      "28": 5444,
      "57": 5445,
      "dat": 5446,
      "ived": 5447,
      "war": 5448,
      "word": 5449,
      "redu": 5450,
      "Ġwar": 5451,
      "Ġcomments": 5452,
      "timing": 5453,
      "orted": 5454,
      "Ġpapers": 5455,
      "Ġrecords": 5456,
      "Ġsubclass": 5457,
      "Ġvisible": 5458,
      "Ġconsideration": 5459,
      "Ġgrouping": 5460,
      "Ġencod": 5461,
      "Ġdemonstrating": 5462,
      "Ġredistrib": 5463,
      "Ġsatisfied": 5464,
      "Ġentities": 5465,
      "tolerance": 5466,
      "Ġdiskipline": 5467,
      "Ġdramatically": 5468,
      "Ġequilibrium": 5469,
      "dis": 5470,
      "Ġveloc": 5471,
      "vere": 5472,
      "ulary": 5473,
      "Ġhope": 5474,
      "Ġimprec": 5475,
      "Ġunexp": 5476,
      "Ġroles": 5477,
      "Ġtracing": 5478,
      "berg": 5479,
      "Ġphot": 5480,
      "Ġthroughout": 5481,
      "Ġenvironmental": 5482,
      "Ġpredicted": 5483,
      "Ġderiving": 5484,
      "Ġdirectory": 5485,
      "Ġfocusing": 5486,
      "Ġiterations": 5487,
      "Ġmaintained": 5488,
      "Ġartifact": 5489,
      "Ġcyclic": 5490,
      "box": 5491,
      "Ġembedding": 5492,
      "Ġcompositional": 5493,
      "Ġconsequently": 5494,
      "Ġreplacement": 5495,
      "Ġsurprisingly": 5496,
      "Ġneurons": 5497,
      "Ġnasa": 5498,
      "machine": 5499,
      "46": 5500,
      "function": 5501,
      "gp": 5502,
      "Ġtup": 5503,
      "Ġpvm": 5504,
      "enced": 5505,
      "itch": 5506,
      "Ġbul": 5507,
      "Ġintra": 5508,
      "Ġparser": 5509,
      "Ġsevere": 5510,
      "intensive": 5511,
      "Ġcorrection": 5512,
      "Ġhandled": 5513,
      "Ġindirect": 5514,
      "Ġwavelets": 5515,
      "ocabulary": 5516,
      "den": 5517,
      "del": 5518,
      "lig": 5519,
      "lds": 5520,
      "tinu": 5521,
      "Ġaud": 5522,
      "ones": 5523,
      "ulating": 5524,
      "ularities": 5525,
      "Ġho": 5526,
      "Ġusa": 5527,
      "implement": 5528,
      "Ġrise": 5529,
      "through": 5530,
      "Ġseems": 5531,
      "Ġgenerality": 5532,
      "Ġsimulating": 5533,
      "Ġadapting": 5534,
      "Ġestimators": 5535,
      "Ġbackward": 5536,
      "Ġsimplified": 5537,
      "Ġsensitivity": 5538,
      "Ġcomplementary": 5539,
      "Ġpolygonal": 5540,
      "Ġdrawing": 5541,
      "Ġobstacle": 5542,
      "Ġslicing": 5543,
      "Ġabsence": 5544,
      "Ġcod": 5545,
      "Ġnar": 5546,
      "under": 5547,
      "Ġcompan": 5548,
      "Ġdeals": 5549,
      "Ġcanon": 5550,
      "Ġcoverage": 5551,
      "Ġscan": 5552,
      "Ġthank": 5553,
      "Ġ1998": 5554,
      "Ġyou": 5555,
      "Ġscheduled": 5556,
      "positions": 5557,
      "Ġestimator": 5558,
      "Ġencode": 5559,
      "Ġexploring": 5560,
      "Ġreceive": 5561,
      "Ġvalidate": 5562,
      "Ġfrequent": 5563,
      "Ġcorresponds": 5564,
      "Ġhypertext": 5565,
      "Ġacquire": 5566,
      "Ġcategorization": 5567,
      "Ġcustomized": 5568,
      "Ġdeadline": 5569,
      "Ġmultiplication": 5570,
      "Ġmodularity": 5571,
      "Ġdisjunctive": 5572,
      "Ġproportional": 5573,
      "bin": 5574,
      "crib": 5575,
      "fly": 5576,
      "ht": 5577,
      "Ġdivers": 5578,
      "Ġwant": 5579,
      "Ġher": 5580,
      "empl": 5581,
      "Ġrepr": 5582,
      "Ġobvious": 5583,
      "Ġdistribute": 5584,
      "Ġcontrols": 5585,
      "prot": 5586,
      "Ġminimizes": 5587,
      "Ġengines": 5588,
      "Ġfacial": 5589,
      "Ġprototyping": 5590,
      "variant": 5591,
      "Ġprofile": 5592,
      "grain": 5593,
      "Ġstrengths": 5594,
      "Ġdestination": 5595,
      "Ġthousands": 5596,
      "Ġboosting": 5597,
      "bi": 5598,
      "mer": 5599,
      "media": 5600,
      "vity": 5601,
      "erpr": 5602,
      "ists": 5603,
      "Ġdispar": 5604,
      "Ġenfor": 5605,
      "Ġche": 5606,
      "Ġpool": 5607,
      "Ġrot": 5608,
      "Ġincur": 5609,
      "Ġsolid": 5610,
      "Ġserious": 5611,
      "Ġgib": 5612,
      "Ġub": 5613,
      "Ġraw": 5614,
      "Ġmechanical": 5615,
      "Ġmeasuring": 5616,
      "Ġhandles": 5617,
      "Ġconsiderations": 5618,
      "Ġlayered": 5619,
      "Ġinsights": 5620,
      "Ġrestriction": 5621,
      "Ġ50": 5622,
      "Ġfreedom": 5623,
      "Ġconvenient": 5624,
      "yclic": 5625,
      "Ġbuffers": 5626,
      "Ġprofiling": 5627,
      "Ġbranches": 5628,
      "Ġmanipulate": 5629,
      "Ġmerging": 5630,
      "speech": 5631,
      "Ġfragments": 5632,
      "Ġidentical": 5633,
      "Ġquorum": 5634,
      "hn": 5635,
      "oking": 5636,
      "sd": 5637,
      "test": 5638,
      "alth": 5639,
      "Ġfusion": 5640,
      "itous": 5641,
      "Ġexc": 5642,
      "Ġsept": 5643,
      "Ġinterference": 5644,
      "ending": 5645,
      "Ġopin": 5646,
      "Ġoptimum": 5647,
      "Ġdeco": 5648,
      "Ġtyping": 5649,
      "Ġsearches": 5650,
      "Ġwashing": 5651,
      "Ġframeworks": 5652,
      "Ġsecondary": 5653,
      "mma": 5654,
      "Ġevolved": 5655,
      "Ġutilizes": 5656,
      "Ġplayer": 5657,
      "Ġcryptography": 5658,
      "Ġfairly": 5659,
      "modeling": 5660,
      "Ġeconom": 5661,
      "Ġinconsist": 5662,
      "Ġinequalities": 5663,
      "Ġtlb": 5664,
      "task": 5665,
      "Ġwis": 5666,
      "Ġmom": 5667,
      "Ġonr": 5668,
      "Ġrisk": 5669,
      "vention": 5670,
      "velop": 5671,
      "Ġdecoding": 5672,
      "Ġdetermination": 5673,
      "Ġrecognizing": 5674,
      "Ġkeys": 5675,
      "Ġfoundations": 5676,
      "Ġconfirm": 5677,
      "Ġbook": 5678,
      "Ġsubstit": 5679,
      "Ġaffected": 5680,
      "Ġsymmetry": 5681,
      "Ġdataset": 5682,
      "Ġannotations": 5683,
      "Ġmarg": 5684,
      "Ġaccommodate": 5685,
      ",.": 5686,
      "ken": 5687,
      "saf": 5688,
      "Ġsac": 5689,
      "Ġosc": 5690,
      "Ġmary": 5691,
      "Ġmotor": 5692,
      "ster": 5693,
      "station": 5694,
      "Ġhit": 5695,
      "odal": 5696,
      "ife": 5697,
      "Ġpati": 5698,
      "Ġdisjoint": 5699,
      "Ġimposed": 5700,
      "Ġspeculative": 5701,
      "Ġformer": 5702,
      "Ġstudent": 5703,
      "Ġaccessing": 5704,
      "Ġaccessible": 5705,
      "Ġquerying": 5706,
      "Ġassumes": 5707,
      "Ġprocedural": 5708,
      "Ġinside": 5709,
      "Ġcrash": 5710,
      "Ġstores": 5711,
      "Ġemploying": 5712,
      "Ġpolygons": 5713,
      "Ġinvoc": 5714,
      "Ġexcell": 5715,
      "Ġspectral": 5716,
      "Ġbusiness": 5717,
      "Ġqueueing": 5718,
      "Ġsplitting": 5719,
      "Ġvaluable": 5720,
      "Ġscientists": 5721,
      "].\"": 5722,
      "dra": 5723,
      "hy": 5724,
      "how": 5725,
      "ipher": 5726,
      "pos": 5727,
      "rs": 5728,
      "Ġ/": 5729,
      "Ġsan": 5730,
      "Ġsus": 5731,
      "Ġhor": 5732,
      "Ġcome": 5733,
      "Ġstan": 5734,
      "Ġstabil": 5735,
      "Ġmapped": 5736,
      "Ġenumer": 5737,
      "Ġlogging": 5738,
      "Ġsecret": 5739,
      "Ġoutlines": 5740,
      "Ġcharacterizing": 5741,
      "Ġexecutions": 5742,
      "Ġconsistently": 5743,
      "marks": 5744,
      "Ġtermin": 5745,
      "Ġvalidity": 5746,
      "Ġsimplification": 5747,
      "Ġdiagram": 5748,
      "Ġinherently": 5749,
      "Ġdiffers": 5750,
      "Ġconsumption": 5751,
      "iliar": 5752,
      "Ġdiskontinu": 5753,
      "towards": 5754,
      "Ġpush": 5755,
      "Ġperturb": 5756,
      "haus": 5757,
      "only": 5758,
      "Ġsql": 5759,
      "atter": 5760,
      "Ġbip": 5761,
      "Ġcompens": 5762,
      "Ġrepublish": 5763,
      "fered": 5764,
      "Ġhashing": 5765,
      "Ġoverlapping": 5766,
      "Ġverif": 5767,
      "party": 5768,
      "Ġworlds": 5769,
      "Ġameric": 5770,
      "Ġloose": 5771,
      "comes": 5772,
      "Ġformalization": 5773,
      "Ġwrites": 5774,
      "computing": 5775,
      "Ġinspired": 5776,
      "Ġfront": 5777,
      "63": 5778,
      "culation": 5779,
      "evalu": 5780,
      "high": 5781,
      "Ġaway": 5782,
      "rout": 5783,
      "Ġfing": 5784,
      "Ġwalk": 5785,
      "rust": 5786,
      "Ġacyclic": 5787,
      "Ġpreem": 5788,
      "Ġinclusion": 5789,
      "Ġworkflow": 5790,
      "bert": 5791,
      "Ġvariability": 5792,
      "Ġscalar": 5793,
      "Ġgrasp": 5794,
      "Ġconverge": 5795,
      "Ġconcurrently": 5796,
      "connected": 5797,
      "Ġmajority": 5798,
      "Ġensures": 5799,
      "Ġcompetition": 5800,
      "Ġobservable": 5801,
      "Ġpieces": 5802,
      "Ġpiecewise": 5803,
      "Ġtrajectory": 5804,
      "Ġeucl": 5805,
      "blocking": 5806,
      "Ġpseudo": 5807,
      "Ġneuro": 5808,
      "distributed": 5809,
      "Ġglobally": 5810,
      "Ġwashington": 5811,
      "40": 5812,
      "45": 5813,
      "?.": 5814,
      "Ġtexts": 5815,
      "Ġpet": 5816,
      "Ġrevised": 5817,
      "Ġnom": 5818,
      "Ġsty": 5819,
      "Ġmoder": 5820,
      "Ġmodifying": 5821,
      "urred": 5822,
      "poly": 5823,
      "Ġcalculation": 5824,
      "ogeneity": 5825,
      "Ġquantif": 5826,
      "Ġavoidance": 5827,
      "Ġpreserve": 5828,
      "Ġsentence": 5829,
      "Ġcarefully": 5830,
      "critical": 5831,
      "Ġderivatives": 5832,
      "Ġmacro": 5833,
      "Ġtensor": 5834,
      "random": 5835,
      "ying": 5836,
      "Ġur": 5837,
      "Ġbid": 5838,
      "Ġstri": 5839,
      "Ġintensity": 5840,
      "Ġinterior": 5841,
      "Ġmethodologies": 5842,
      "Ġnotes": 5843,
      "idean": 5844,
      "Ġdevelopments": 5845,
      "Ġprotein": 5846,
      "Ġcommunicating": 5847,
      "Ġcapturing": 5848,
      "Ġbuilds": 5849,
      "processors": 5850,
      "Ġretrieve": 5851,
      "Ġbelow": 5852,
      "Ġbelong": 5853,
      "Ġ40": 5854,
      "Ġloads": 5855,
      "etitive": 5856,
      "Ġanswering": 5857,
      "Ġweakness": 5858,
      "Ġexponentially": 5859,
      "Ġaimed": 5860,
      "Ġpromise": 5861,
      "Ġaxioms": 5862,
      "effective": 5863,
      "Ġcompeting": 5864,
      "Ġrepository": 5865,
      "Ġtrends": 5866,
      "Ġhighlight": 5867,
      "Ġadopted": 5868,
      "Ġanonymous": 5869,
      "Ġirrelevant": 5870,
      "avi": 5871,
      "Ġtit": 5872,
      "orti": 5873,
      "Ġcray": 5874,
      "Ġinad": 5875,
      "Ġant": 5876,
      "Ġbag": 5877,
      "Ġretiming": 5878,
      "Ġconstants": 5879,
      "Ġnewton": 5880,
      "Ġdecember": 5881,
      "Ġ32": 5882,
      "Ġraid": 5883,
      "service": 5884,
      "Ġintegral": 5885,
      "Ġheap": 5886,
      "Ġcomparative": 5887,
      "Ġ92": 5888,
      "Ġresponses": 5889,
      "Ġphysics": 5890,
      "Ġreading": 5891,
      "Ġsatisfiability": 5892,
      "Ġmerge": 5893,
      "Ġinspection": 5894,
      "Ġsales": 5895,
      "Ġubiqu": 5896,
      "81": 5897,
      "pres": 5898,
      "rl": 5899,
      "Ġoffered": 5900,
      "Ġfo": 5901,
      "Ġinferences": 5902,
      "Ġwal": 5903,
      "Ġmental": 5904,
      "Ġrewrite": 5905,
      "style": 5906,
      "Ġgerman": 5907,
      "ild": 5908,
      "Ġmodul": 5909,
      "Ġabdu": 5910,
      "Ġscri": 5911,
      "Ġclassified": 5912,
      "Ġwormh": 5913,
      "Ġequality": 5914,
      "Ġdependences": 5915,
      "Ġtheoretic": 5916,
      "scalar": 5917,
      "Ġeliminates": 5918,
      "Ġskew": 5919,
      "Ġtolerate": 5920,
      "Ġexhibits": 5921,
      "Ġaugust": 5922,
      "Ġstrati": 5923,
      "Ġdrawback": 5924,
      "Ġbottlenecks": 5925,
      "Ġsquare": 5926,
      "Ġproxy": 5927,
      "Ġoriginally": 5928,
      "Ġdiversity": 5929,
      "Ġgibbs": 5930,
      "07": 5931,
      "gh": 5932,
      "ober": 5933,
      "run": 5934,
      "uary": 5935,
      "vo": 5936,
      "Ġing": 5937,
      "erc": 5938,
      "Ġdup": 5939,
      "adic": 5940,
      "Ġart": 5941,
      "rans": 5942,
      "Ġtransf": 5943,
      "Ġoperates": 5944,
      "ishi": 5945,
      "Ġlessons": 5946,
      "Ġentries": 5947,
      "Ġlaws": 5948,
      "Ġtruth": 5949,
      "iii": 5950,
      "Ġintervals": 5951,
      "Ġspontaneous": 5952,
      "Ġpolyhedral": 5953,
      "Ġexclusion": 5954,
      "Ġbridge": 5955,
      "Ġcredit": 5956,
      "Ġsomew": 5957,
      "jection": 5958,
      "norm": 5959,
      "vector": 5960,
      "ino": 5961,
      "Ġsi": 5962,
      "Ġpassive": 5963,
      "ening": 5964,
      "ats": 5965,
      "Ġdie": 5966,
      "Ġmits": 5967,
      "Ġbes": 5968,
      "Ġhear": 5969,
      "Ġlive": 5970,
      "Ġexempl": 5971,
      "see": 5972,
      "Ġspline": 5973,
      "Ġuni": 5974,
      "adv": 5975,
      "Ġformation": 5976,
      "Ġfeb": 5977,
      "Ġbuck": 5978,
      "Ġyork": 5979,
      "Ġroutes": 5980,
      "ubishi": 5981,
      "Ġrandomness": 5982,
      "Ġredes": 5983,
      "Ġpredictable": 5984,
      "Ġentirely": 5985,
      "Ġhistog": 5986,
      "Ġexceptions": 5987,
      "Ġdiskiplines": 5988,
      "Ġinteroperability": 5989,
      "Ġphrases": 5990,
      "Ġassertions": 5991,
      "Ġsymbols": 5992,
      "Ġbarrier": 5993,
      "Ġtaxonom": 5994,
      "35": 5995,
      "making": 5996,
      "sess": 5997,
      "Ġtac": 5998,
      "Ġsay": 5999,
      "Ġreverse": 6000,
      "Ġeight": 6001,
      "Ġcomes": 6002,
      "Ġongoing": 6003,
      "Ġcomprom": 6004,
      "Ġvan": 6005,
      "Ġpark": 6006,
      "Ġspread": 6007,
      "aged": 6008,
      "Ġscho": 6009,
      "Ġsolvers": 6010,
      "Ġserves": 6011,
      "Ġdetected": 6012,
      "Ġcoloring": 6013,
      "Ġfacts": 6014,
      "Ġtopics": 6015,
      "incre": 6016,
      "Ġformulations": 6017,
      "bridge": 6018,
      "Ġbalanced": 6019,
      "Ġtriangulation": 6020,
      "Ġpipeline": 6021,
      "Ġreconfiguration": 6022,
      "Ġneighborhood": 6023,
      "emporal": 6024,
      "Ġconjecture": 6025,
      "Ġcanonical": 6026,
      "haustive": 6027,
      "base": 6028,
      "from": 6029,
      "ga": 6030,
      "tz": 6031,
      "Ġaware": 6032,
      "orial": 6033,
      "isson": 6034,
      "Ġbig": 6035,
      "Ġny": 6036,
      "Ġapparent": 6037,
      "Ġcomputable": 6038,
      "osoph": 6039,
      "Ġpreference": 6040,
      "Ġpropag": 6041,
      "deg": 6042,
      "Ġrecognizer": 6043,
      "Ġtextual": 6044,
      "Ġexpressing": 6045,
      "Ġincorrect": 6046,
      "Ġlengths": 6047,
      "Ġprofit": 6048,
      "Ġaggressive": 6049,
      "Ġgained": 6050,
      "Ġgrids": 6051,
      "Ġpoorly": 6052,
      "Ġfragment": 6053,
      "Ġscenario": 6054,
      "Ġlegal": 6055,
      "approximation": 6056,
      "Ġtemplate": 6057,
      "Ġoscill": 6058,
      "Ġeuclidean": 6059,
      "Ġwormhole": 6060,
      "Ġtransfers": 6061,
      "Ġmitsubishi": 6062,
      "core": 6063,
      "cop": 6064,
      "db": 6065,
      "ee": 6066,
      "sl": 6067,
      "size": 6068,
      "inst": 6069,
      "rew": 6070,
      "Ġfif": 6071,
      "Ġfall": 6072,
      "Ġfetch": 6073,
      "step": 6074,
      "Ġhaz": 6075,
      "ematic": 6076,
      "ilies": 6077,
      "oted": 6078,
      "Ġunipro": 6079,
      "ditive": 6080,
      "Ġrealize": 6081,
      "Ġensuring": 6082,
      "Ġ1988": 6083,
      "Ġprofess": 6084,
      "Ġsketch": 6085,
      "Ġdeadlines": 6086,
      "Ġsender": 6087,
      "Ġguidel": 6088,
      "Ġinterpretations": 6089,
      "Ġphilosoph": 6090,
      "ca": 6091,
      "hand": 6092,
      "io": 6093,
      "pting": 6094,
      "tw": 6095,
      "ortion": 6096,
      "Ġood": 6097,
      "Ġinefficient": 6098,
      "itz": 6099,
      "Ġbring": 6100,
      "odies": 6101,
      "Ġexhaustive": 6102,
      "Ġvc": 6103,
      "izability": 6104,
      "Ġchem": 6105,
      "Ġprocessed": 6106,
      "Ġtransi": 6107,
      "lexity": 6108,
      "key": 6109,
      "Ġmemories": 6110,
      "Ġlocking": 6111,
      "Ġattach": 6112,
      "Ġterra": 6113,
      "Ġ97": 6114,
      "Ġjohn": 6115,
      "Ġinterpreter": 6116,
      "Ġdecompositions": 6117,
      "Ġhelpful": 6118,
      "Ġdecidable": 6119,
      "Ġmonotonic": 6120,
      "Ġconcentrate": 6121,
      "Ġjanuary": 6122,
      "Ġrecommendations": 6123,
      "Ġunnecessary": 6124,
      "datab": 6125,
      "Ġdecoup": 6126,
      "Ġsacri": 6127,
      "50": 6128,
      "aves": 6129,
      "cach": 6130,
      "hat": 6131,
      "ki": 6132,
      "Ġtel": 6133,
      "Ġtex": 6134,
      "Ġom": 6135,
      "ung": 6136,
      "sip": 6137,
      "Ġpermitted": 6138,
      "Ġunless": 6139,
      "Ġmail": 6140,
      "aptic": 6141,
      "Ġrotation": 6142,
      "Ġmanif": 6143,
      "ups": 6144,
      "Ġtransmit": 6145,
      "Ġlogarithmic": 6146,
      "Ġmostly": 6147,
      "Ġidentity": 6148,
      "Ġlimiting": 6149,
      "Ġactu": 6150,
      "Ġlinked": 6151,
      "Ġreadily": 6152,
      "Ġ80": 6153,
      "Ġperiods": 6154,
      "Ġranking": 6155,
      "cription": 6156,
      "Ġvehicles": 6157,
      "Ġdeciding": 6158,
      "Ġeconomic": 6159,
      "Ġaccomplished": 6160,
      "Ġinstrumentation": 6161,
      "Ġshadow": 6162,
      "Ġoctober": 6163,
      "Ġexcellent": 6164,
      "Ġstanford": 6165,
      "band": 6166,
      "dig": 6167,
      "found": 6168,
      "haps": 6169,
      "sed": 6170,
      "tise": 6171,
      "Ġcast": 6172,
      "Ġdid": 6173,
      "Ġeleg": 6174,
      "Ġlies": 6175,
      "Ġask": 6176,
      "Ġasy": 6177,
      "Ġdatalog": 6178,
      "Ġ18": 6179,
      "Ġpositions": 6180,
      "Ġscreen": 6181,
      "Ġemb": 6182,
      "Ġoutside": 6183,
      "Ġsmart": 6184,
      "Ġlost": 6185,
      "Ġachievable": 6186,
      "Ġacts": 6187,
      "variance": 6188,
      "Ġnumeric": 6189,
      "Ġheterogeneity": 6190,
      "Ġplayers": 6191,
      "Ġfamilies": 6192,
      "Ġcollector": 6193,
      "Ġremaining": 6194,
      "Ġorganizational": 6195,
      "Ġlabeling": 6196,
      "Ġexploratory": 6197,
      "Ġcommitment": 6198,
      "Ġpixels": 6199,
      "Ġproposals": 6200,
      "Ġdiskonn": 6201,
      "Ġinnov": 6202,
      "Ġunexpected": 6203,
      "Ġseptember": 6204,
      "degree": 6205,
      "%,": 6206,
      "21": 6207,
      "bda": 6208,
      "dif": 6209,
      "list": 6210,
      "uble": 6211,
      "chip": 6212,
      "Ġproxim": 6213,
      "used": 6214,
      "ilarities": 6215,
      "ticip": 6216,
      "Ġparties": 6217,
      "Ġspin": 6218,
      "Ġclar": 6219,
      "Ġgeneralizations": 6220,
      "Ġ24": 6221,
      "spaces": 6222,
      "Ġschemas": 6223,
      "Ġocclusion": 6224,
      "Ġmicroprocessor": 6225,
      "Ġensemble": 6226,
      "Ġmixtures": 6227,
      "Ġpreserves": 6228,
      "Ġguided": 6229,
      "Ġprivacy": 6230,
      "Ġdivide": 6231,
      "Ġskills": 6232,
      "Ġvelocity": 6233,
      "Ġimprecise": 6234,
      "Ġbiparti": 6235,
      "bf": 6236,
      "ror": 6237,
      "vp": 6238,
      "Ġsil": 6239,
      "Ġduration": 6240,
      "Ġwires": 6241,
      "Ġmich": 6242,
      "Ġhoc": 6243,
      "Ġhop": 6244,
      "Ġvocabulary": 6245,
      "Ġdissem": 6246,
      "Ġoption": 6247,
      "Ġsubgo": 6248,
      "Ġexamining": 6249,
      "Ġemerg": 6250,
      "Ġlocalization": 6251,
      "Ġinvestigating": 6252,
      "Ġtranslations": 6253,
      "Ġseparately": 6254,
      "visual": 6255,
      "Ġsimplifies": 6256,
      "Ġacquired": 6257,
      "typed": 6258,
      "Ġcorrespondences": 6259,
      "Ġturns": 6260,
      "Ġmeaningful": 6261,
      "Ġhomogeneous": 6262,
      "Ġmulticomputer": 6263,
      "Ġimpossible": 6264,
      "Ġsubtyping": 6265,
      "Ġbulk": 6266,
      "Ġubiquitous": 6267,
      "Ġsomewhat": 6268,
      "Ġuniprocess": 6269,
      "clim": 6270,
      "ef": 6271,
      "nn": 6272,
      "tered": 6273,
      "Ġtd": 6274,
      "Ġstim": 6275,
      "stre": 6276,
      "Ġham": 6277,
      "iler": 6278,
      "Ġadditive": 6279,
      "Ġclp": 6280,
      "Ġmanually": 6281,
      "Ġmultiresolution": 6282,
      "Ġoverlap": 6283,
      "Ġexpertise": 6284,
      "Ġimaging": 6285,
      "Ġconcise": 6286,
      "Ġbounding": 6287,
      "Ġproperly": 6288,
      "Ġretrans": 6289,
      "Ġutilizing": 6290,
      "engine": 6291,
      "Ġrefine": 6292,
      "Ġreflection": 6293,
      "Ġgrows": 6294,
      "livious": 6295,
      "Ġpipelined": 6296,
      "Ġwider": 6297,
      "Ġinsertion": 6298,
      "Ġdivided": 6299,
      "buil": 6300,
      "Ġmultiplexing": 6301,
      "constrained": 6302,
      "easible": 6303,
      "Ġcircumst": 6304,
      "Ġlambda": 6305,
      "fil": 6306,
      "inism": 6307,
      "Ġgig": 6308,
      "Ġsparc": 6309,
      "ocs": 6310,
      "Ġtransitive": 6311,
      "Ġoverload": 6312,
      "Ġsubrout": 6313,
      "Ġroutine": 6314,
      "Ġboot": 6315,
      "Ġfails": 6316,
      "Ġrestrict": 6317,
      "Ġfamiliar": 6318,
      "Ġcaptured": 6319,
      "Ġmutation": 6320,
      "Ġwaiting": 6321,
      "Ġcareful": 6322,
      "Ġcollege": 6323,
      "Ġeditor": 6324,
      "Ġnamed": 6325,
      "Ġcontinue": 6326,
      "controlled": 6327,
      "Ġartifacts": 6328,
      "Ġinadequ": 6329,
      "32": 6330,
      "car": 6331,
      "sur": 6332,
      "Ġaust": 6333,
      "encing": 6334,
      "edic": 6335,
      "Ġwin": 6336,
      "Ġhapp": 6337,
      "Ġrt": 6338,
      "range": 6339,
      "Ġabsol": 6340,
      "Ġoptimally": 6341,
      "oung": 6342,
      "Ġinternetwork": 6343,
      "Ġtransforming": 6344,
      "Ġactor": 6345,
      "icious": 6346,
      "Ġresponsible": 6347,
      "Ġfourier": 6348,
      "Ġestablishing": 6349,
      "Ġlosses": 6350,
      "Ġcontribute": 6351,
      "Ġcambridge": 6352,
      "Ġmotivate": 6353,
      "rope": 6354,
      "Ġopposed": 6355,
      "Ġacceptance": 6356,
      "Ġrequested": 6357,
      "Ġimplicitly": 6358,
      "Ġcovering": 6359,
      "Ġexchang": 6360,
      "decid": 6361,
      "Ġintrins": 6362,
      "Ġtraveling": 6363,
      "fitting": 6364,
      "Ġexpressiveness": 6365,
      "checking": 6366,
      "Ġguidelines": 6367,
      "Ġtransient": 6368,
      "76": 6369,
      "ho": 6370,
      "lining": 6371,
      "mat": 6372,
      "Ġ~": 6373,
      "ony": 6374,
      "tition": 6375,
      "Ġow": 6376,
      "Ġmal": 6377,
      "Ġexcept": 6378,
      "abit": 6379,
      "Ġattain": 6380,
      "irection": 6381,
      "Ġimager": 6382,
      "Ġlargest": 6383,
      "Ġchanged": 6384,
      "lingual": 6385,
      "Ġseparating": 6386,
      "Ġplays": 6387,
      "Ġrend": 6388,
      "Ġentail": 6389,
      "Ġelectrical": 6390,
      "Ġbuffering": 6391,
      "Ġ1987": 6392,
      "Ġmaterialized": 6393,
      "Ġlabels": 6394,
      "Ġaims": 6395,
      "Ġdiagnostic": 6396,
      "Ġtemplates": 6397,
      "Ġadversary": 6398,
      "Ġreversible": 6399,
      "database": 6400,
      "Ġelegant": 6401,
      "43": 6402,
      "99": 6403,
      "ahead": 6404,
      "Ġul": 6405,
      "Ġpit": 6406,
      "Ġdag": 6407,
      "Ġmism": 6408,
      "Ġmention": 6409,
      "Ġreordering": 6410,
      "quality": 6411,
      "theless": 6412,
      "Ġunion": 6413,
      "Ġunbounded": 6414,
      "ump": 6415,
      "Ġmetap": 6416,
      "Ġroom": 6417,
      "Ġjac": 6418,
      "Ġworse": 6419,
      "Ġrare": 6420,
      "Ġlinearly": 6421,
      "Ġtreated": 6422,
      "Ġsimilarly": 6423,
      "Ġcope": 6424,
      "Ġchecker": 6425,
      "Ġcoordinates": 6426,
      "Ġsimplifying": 6427,
      "Ġregularization": 6428,
      "Ġmovements": 6429,
      "Ġreplaced": 6430,
      "Ġanalogous": 6431,
      "Ġextensively": 6432,
      "Ġsystematically": 6433,
      "Ġindustry": 6434,
      "Ġreconfigurable": 6435,
      "Ġnevertheless": 6436,
      "Ġdeployment": 6437,
      "Ġpermutation": 6438,
      "Ġplausible": 6439,
      "delay": 6440,
      "Ġmaryland": 6441,
      "Ġredesign": 6442,
      "Ġtaxonomy": 6443,
      "Ġcircumstances": 6444,
      "Ġabsolute": 6445,
      "irectional": 6446,
      "])": 6447,
      "mber": 6448,
      "num": 6449,
      "Ġum": 6450,
      "Ġcerti": 6451,
      "Ġanom": 6452,
      "Ġmcm": 6453,
      "Ġlie": 6454,
      "Ġvaries": 6455,
      "Ġparag": 6456,
      "Ġunifying": 6457,
      "Ġclim": 6458,
      "Ġclause": 6459,
      "Ġsole": 6460,
      "Ġplaces": 6461,
      "Ġclassifying": 6462,
      "Ġsubproble": 6463,
      "Ġsimulators": 6464,
      "Ġpossess": 6465,
      "Ġ96": 6466,
      "Ġconversion": 6467,
      "Ġstoring": 6468,
      "Ġalternating": 6469,
      "Ġteams": 6470,
      "Ġeventually": 6471,
      "Ġradial": 6472,
      "Ġfitting": 6473,
      "Ġtriangular": 6474,
      "Ġslower": 6475,
      "Ġdeduction": 6476,
      "Ġexpectation": 6477,
      "Ġsending": 6478,
      "parametric": 6479,
      "Ġdifferentiation": 6480,
      "Ġdiskretization": 6481,
      "improving": 6482,
      "Ġbootstra": 6483,
      "cut": 6484,
      "fram": 6485,
      "gro": 6486,
      "vin": 6487,
      "inations": 6488,
      "Ġcasc": 6489,
      "Ġwat": 6490,
      "Ġtot": 6491,
      "Ġlu": 6492,
      "Ġlag": 6493,
      "Ġisra": 6494,
      "Ġgates": 6495,
      "Ġalle": 6496,
      "ilinear": 6497,
      "Ġadop": 6498,
      "Ġmetad": 6499,
      "Ġrepresentational": 6500,
      "Ġ21": 6501,
      "Ġlocate": 6502,
      "ielding": 6503,
      "Ġengineers": 6504,
      "location": 6505,
      "Ġallocated": 6506,
      "Ġvalidated": 6507,
      "Ġpredictor": 6508,
      "Ġcustomer": 6509,
      "Ġdisplays": 6510,
      "Ġdriver": 6511,
      "Ġseek": 6512,
      "Ġregistration": 6513,
      "Ġresolve": 6514,
      "Ġsubsystems": 6515,
      "Ġphonetic": 6516,
      "Ġteaching": 6517,
      "Ġvoice": 6518,
      "Ġelliptic": 6519,
      "Ġopinions": 6520,
      "Ġschool": 6521,
      "31": 6522,
      "hol": 6523,
      "lined": 6524,
      "Ġinferred": 6525,
      "Ġrevis": 6526,
      "Ġeye": 6527,
      "Ġexcess": 6528,
      "Ġleave": 6529,
      "ada": 6530,
      "Ġatom": 6531,
      "Ġsimilarities": 6532,
      "Ġformed": 6533,
      "Ġhighway": 6534,
      "Ġsignificance": 6535,
      "ubes": 6536,
      "Ġdiver": 6537,
      "Ġheld": 6538,
      "specified": 6539,
      "Ġprofiles": 6540,
      "Ġconclusion": 6541,
      "Ġratios": 6542,
      "Ġpossibilities": 6543,
      "appropri": 6544,
      "Ġenhancement": 6545,
      "Ġdiskrimination": 6546,
      "Ġpolymorphism": 6547,
      "Ġinequality": 6548,
      "Ġdisambiguation": 6549,
      "safe": 6550,
      "advant": 6551,
      "Ġterrain": 6552,
      "Ġtexas": 6553,
      "founded": 6554,
      "aware": 6555,
      "Ġcube": 6556,
      "isting": 6557,
      "Ġinexp": 6558,
      "Ġdedic": 6559,
      "Ġhpf": 6560,
      "cell": 6561,
      "Ġunpredic": 6562,
      "Ġundecid": 6563,
      "ruary": 6564,
      "Ġadvice": 6565,
      "Ġacad": 6566,
      "Ġnove": 6567,
      "Ġstructuring": 6568,
      "prob": 6569,
      "Ġschedulers": 6570,
      "Ġpackages": 6571,
      "Ġcreates": 6572,
      "Ġtranslated": 6573,
      "Ġprojective": 6574,
      "Ġrefined": 6575,
      "Ġpublication": 6576,
      "Ġhypercube": 6577,
      "Ġcommerce": 6578,
      "Ġtriangles": 6579,
      "Ġanalogy": 6580,
      "generated": 6581,
      "Ġrounds": 6582,
      "Ġsummarize": 6583,
      "Ġinconsistent": 6584,
      "Ġtraversal": 6585,
      "Ġsatell": 6586,
      "Ġsavings": 6587,
      "ham": 6588,
      "lat": 6589,
      "otic": 6590,
      "Ġthinking": 6591,
      "algorith": 6592,
      "Ġfr": 6593,
      "Ġanticip": 6594,
      "itation": 6595,
      "unci": 6596,
      "Ġinten": 6597,
      "Ġrc": 6598,
      "orting": 6599,
      "access": 6600,
      "Ġada": 6601,
      "Ġplus": 6602,
      "Ġfinan": 6603,
      "ologically": 6604,
      "Ġimmedi": 6605,
      "Ġminor": 6606,
      "Ġdouble": 6607,
      "Ġevaluations": 6608,
      "Ġyoung": 6609,
      "Ġorderings": 6610,
      "Ġcostly": 6611,
      "Ġvisiting": 6612,
      "Ġlearners": 6613,
      "Ġinduce": 6614,
      "Ġdelayed": 6615,
      "Ġbiology": 6616,
      "Ġconfigurable": 6617,
      "Ġ60": 6618,
      "Ġsmoothness": 6619,
      "Ġnormalization": 6620,
      "Ġregardless": 6621,
      "Ġteamwork": 6622,
      "Ġtightly": 6623,
      "Ġrepeatedly": 6624,
      "Ġgestures": 6625,
      "Ġnaming": 6626,
      "consin": 6627,
      "Ġstyles": 6628,
      "Ġfebruary": 6629,
      "Ġimagery": 6630,
      "aa": 6631,
      "pan": 6632,
      "ese": 6633,
      "espre": 6634,
      "Ġmir": 6635,
      "rative": 6636,
      "Ġlot": 6637,
      "Ġconform": 6638,
      "aming": 6639,
      "Ġperhaps": 6640,
      "ado": 6641,
      "Ġabr": 6642,
      "sour": 6643,
      "Ġspecifies": 6644,
      "Ġmember": 6645,
      "ativity": 6646,
      "Ġpatches": 6647,
      "Ġequational": 6648,
      "Ġheavi": 6649,
      "Ġassociative": 6650,
      "switch": 6651,
      "Ġinfeasible": 6652,
      "Ġcontinuously": 6653,
      "Ġdimensionality": 6654,
      "coherent": 6655,
      "Ġcorrelated": 6656,
      "Ġclocks": 6657,
      "Ġwidespre": 6658,
      "Ġreturns": 6659,
      "Ġsynthesized": 6660,
      "Ġfluid": 6661,
      "Ġutterance": 6662,
      "Ġresidual": 6663,
      "Ġmiddleware": 6664,
      "Ġauditory": 6665,
      "climbing": 6666,
      "appropriate": 6667,
      "Ġwidespread": 6668,
      "83": 6669,
      "bandwidth": 6670,
      "kin": 6671,
      "rt": 6672,
      "ued": 6673,
      "rest": 6674,
      "Ġcc": 6675,
      "ensitive": 6676,
      "Ġdnf": 6677,
      "Ġwright": 6678,
      "Ġmc": 6679,
      "itories": 6680,
      "Ġprovision": 6681,
      "ulates": 6682,
      "ident": 6683,
      "Ġdissip": 6684,
      "Ġpred": 6685,
      "apan": 6686,
      "Ġpoisson": 6687,
      "Ġdistances": 6688,
      "Ġsubgraph": 6689,
      "rone": 6690,
      "Ġmind": 6691,
      "Ġinstall": 6692,
      "Ġproduc": 6693,
      "Ġcompleted": 6694,
      "Ġmonth": 6695,
      "Ġsuperscalar": 6696,
      "Ġdemonstration": 6697,
      "Ġindices": 6698,
      "Ġdigraph": 6699,
      "Ġfaulty": 6700,
      "Ġplayback": 6701,
      "Ġcalculations": 6702,
      "Ġfeedforward": 6703,
      "Ġreceiving": 6704,
      "general": 6705,
      "Ġannotated": 6706,
      "Ġassistant": 6707,
      "Ġsummarizes": 6708,
      "query": 6709,
      "Ġrepositories": 6710,
      "Ġutterances": 6711,
      "Ġrollback": 6712,
      "Ġwisconsin": 6713,
      "Ġloosely": 6714,
      "Ġheart": 6715,
      "Ġsacrific": 6716,
      "Ġnovember": 6717,
      "Ġfinancial": 6718,
      "Ġimmediately": 6719,
      "best": 6720,
      "fg": 6721,
      "mic": 6722,
      "simp": 6723,
      "Ġaer": 6724,
      "information": 6725,
      "org": 6726,
      "Ġinappropriate": 6727,
      "Ġnj": 6728,
      "Ġhon": 6729,
      "Ġdevi": 6730,
      "Ġdisadvant": 6731,
      "Ġpersist": 6732,
      "Ġrs": 6733,
      "timed": 6734,
      "Ġhask": 6735,
      "Ġnondeterministic": 6736,
      "Ġexecutes": 6737,
      "aker": 6738,
      "Ġreasonably": 6739,
      "Ġformalize": 6740,
      "Ġ91": 6741,
      "Ġ98": 6742,
      "Ġmainly": 6743,
      "Ġcooperating": 6744,
      "Ġweaker": 6745,
      "book": 6746,
      "Ġisolation": 6747,
      "Ġstrictly": 6748,
      "Ġgesture": 6749,
      "Ġannual": 6750,
      "negie": 6751,
      "Ġtutorial": 6752,
      "Ġfirew": 6753,
      "Ġsociety": 6754,
      "effort": 6755,
      "Ġallevi": 6756,
      "Ġmetadata": 6757,
      "Ġheavily": 6758,
      "mms": 6759,
      "self": 6760,
      "temporal": 6761,
      "room": 6762,
      "Ġwra": 6763,
      "Ġmell": 6764,
      "itter": 6765,
      "entral": 6766,
      "Ġcong": 6767,
      "loop": 6768,
      "Ġrm": 6769,
      "Ġclique": 6770,
      "Ġresulted": 6771,
      "Ġcommands": 6772,
      "Ġrealization": 6773,
      "pty": 6774,
      "ferential": 6775,
      "Ġadvoc": 6776,
      "Ġstrategic": 6777,
      "Ġcompiling": 6778,
      "Ġcached": 6779,
      "prior": 6780,
      "Ġcarnegie": 6781,
      "Ġinteractively": 6782,
      "Ġstronger": 6783,
      "Ġsignaling": 6784,
      "written": 6785,
      "Ġlightweight": 6786,
      "Ġdiskussions": 6787,
      "scheduling": 6788,
      "Ġsubsequently": 6789,
      "Ġsquares": 6790,
      "symmetric": 6791,
      "Ġalpha": 6792,
      "Ġprice": 6793,
      "grid": 6794,
      "Ġactivation": 6795,
      "Ġinexpensive": 6796,
      "29": 6797,
      "54": 6798,
      "60": 6799,
      "aw": 6800,
      "mr": 6801,
      "ositions": 6802,
      "initi": 6803,
      "Ġcda": 6804,
      "Ġtom": 6805,
      "Ġever": 6806,
      "Ġhiding": 6807,
      "Ġshr": 6808,
      "Ġsharp": 6809,
      "Ġunf": 6810,
      "Ġoblivious": 6811,
      "ugate": 6812,
      "Ġjapan": 6813,
      "Ġdecl": 6814,
      "Ġhighest": 6815,
      "Ġseconds": 6816,
      "Ġyielding": 6817,
      "ounting": 6818,
      "Ġsmallest": 6819,
      "Ġremark": 6820,
      "Ġremove": 6821,
      "Ġstatistically": 6822,
      "Ġboard": 6823,
      "Ġequipped": 6824,
      "Ġreliably": 6825,
      "Ġshortcom": 6826,
      "apped": 6827,
      "Ġentry": 6828,
      "Ġkernels": 6829,
      "Ġtolerant": 6830,
      "Ġprefix": 6831,
      "Ġlexicon": 6832,
      "centered": 6833,
      "Ġkinematic": 6834,
      "Ġadjac": 6835,
      "Ġthought": 6836,
      "Ġbrowser": 6837,
      "Ġenabled": 6838,
      "Ġsnap": 6839,
      "robot": 6840,
      "Ġwarehouse": 6841,
      "Ġoccurrence": 6842,
      "Ġintuitionistic": 6843,
      "Ġroughly": 6844,
      "Ġmimd": 6845,
      "Ġmoderate": 6846,
      "Ġdissemination": 6847,
      "stream": 6848,
      "Ġtotally": 6849,
      "Ġhaskell": 6850,
      "37": 6851,
      "ned": 6852,
      "zing": 6853,
      "Ġtcl": 6854,
      "invariant": 6855,
      "onto": 6856,
      "Ġfab": 6857,
      "Ġmask": 6858,
      "Ġreferred": 6859,
      "Ġlinking": 6860,
      "olar": 6861,
      "olds": 6862,
      "Ġcompatible": 6863,
      "otes": 6864,
      "Ġring": 6865,
      "Ġko": 6866,
      "Ġsetup": 6867,
      "Ġdevelops": 6868,
      "Ġimm": 6869,
      "Ġposes": 6870,
      "Ġapproximated": 6871,
      "Ġsemantically": 6872,
      "Ġsteering": 6873,
      "Ġcontainment": 6874,
      "Ġmaximizing": 6875,
      "Ġcontinuation": 6876,
      "Ġendors": 6877,
      "Ġbeneficial": 6878,
      "Ġgrace": 6879,
      "Ġdeliber": 6880,
      "Ġgrammatical": 6881,
      "Ġmatched": 6882,
      "Ġcmu": 6883,
      "Ġdistinguishing": 6884,
      "Ġontology": 6885,
      "Ġdisparity": 6886,
      "Ġweaknesses": 6887,
      "Ġparagon": 6888,
      "bone": 6889,
      "Ġske": 6890,
      "Ġwater": 6891,
      "Ġbatch": 6892,
      "Ġgl": 6893,
      "Ġparse": 6894,
      "Ġleak": 6895,
      "Ġprefer": 6896,
      "Ġdistortion": 6897,
      "Ġsubtle": 6898,
      "Ġ22": 6899,
      "Ġimmediate": 6900,
      "Ġlocating": 6901,
      "\"\")": 6902,
      "ulty": 6903,
      "Ġlimitation": 6904,
      "Ġediting": 6905,
      "Ġobserver": 6906,
      "Ġorganizing": 6907,
      "reliable": 6908,
      "Ġreads": 6909,
      "Ġreflective": 6910,
      "Ġmonitored": 6911,
      "Ġmicrokernel": 6912,
      "Ġoccurring": 6913,
      "Ġaggregates": 6914,
      "represent": 6915,
      "Ġeurope": 6916,
      "Ġarmy": 6917,
      "Ġmultithreaded": 6918,
      "Ġaveraging": 6919,
      "Ġpursuit": 6920,
      "Ġinvocation": 6921,
      "building": 6922,
      "Ġdedicated": 6923,
      "77": 6924,
      "dp": 6925,
      "fron": 6926,
      "Ġ.\"": 6927,
      "indu": 6928,
      "reds": 6929,
      "enable": 6930,
      "Ġdir": 6931,
      "anc": 6932,
      "Ġgath": 6933,
      "olding": 6934,
      "Ġsplines": 6935,
      "Ġunt": 6936,
      "Ġadds": 6937,
      "Ġrelating": 6938,
      "Ġparticle": 6939,
      "elling": 6940,
      "Ġinstant": 6941,
      "Ġamorti": 6942,
      "Ġminimized": 6943,
      "Ġminimax": 6944,
      "Ġequally": 6945,
      "Ġhardness": 6946,
      "Ġvisualizations": 6947,
      "including": 6948,
      "structures": 6949,
      "Ġassignments": 6950,
      "Ġtruly": 6951,
      "Ġmanipulating": 6952,
      "Ġdistinction": 6953,
      "planning": 6954,
      "Ġenhancements": 6955,
      "Ġdavid": 6956,
      "Ġbegins": 6957,
      "Ġarrive": 6958,
      "Ġphenomenon": 6959,
      "Ġdiskovering": 6960,
      "Ġtailored": 6961,
      "Ġpicture": 6962,
      "Ġtrying": 6963,
      "Ġcontours": 6964,
      "Ġencouraging": 6965,
      "label": 6966,
      "cribed": 6967,
      "protocol": 6968,
      "Ġultim": 6969,
      "84": 6970,
      "glo": 6971,
      "hs": 6972,
      "lation": 6973,
      "moid": 6974,
      "nel": 6975,
      "sized": 6976,
      "techn": 6977,
      "yer": 6978,
      "Ġthor": 6979,
      "Ġslo": 6980,
      "Ġmil": 6981,
      "Ġbdd": 6982,
      "Ġether": 6983,
      "Ġisomorph": 6984,
      "Ġrl": 6985,
      "Ġshell": 6986,
      "architect": 6987,
      "Ġgeneralizing": 6988,
      "prog": 6989,
      "Ġschedulability": 6990,
      "comb": 6991,
      "ounted": 6992,
      "Ġhealth": 6993,
      "Ġbrows": 6994,
      "Ġtranslate": 6995,
      "Ġtranslates": 6996,
      "sharing": 6997,
      "Ġspatially": 6998,
      "Ġplaying": 6999,
      "Ġstarts": 7000,
      "Ġdriving": 7001,
      "Ġsampler": 7002,
      "Ġreachability": 7003,
      "Ġprefetch": 7004,
      "Ġdistinguished": 7005,
      "Ġisolated": 7006,
      "Ġkeeping": 7007,
      "Ġexclusive": 7008,
      "Ġconversational": 7009,
      "Ġhundreds": 7010,
      "Ġencodings": 7011,
      "Ġsalesman": 7012,
      "Ġstratified": 7013,
      "incremental": 7014,
      "Ġretransmission": 7015,
      "Ġjacob": 7016,
      "Ġsatellite": 7017,
      "clo": 7018,
      "ek": 7019,
      "gent": 7020,
      "ucs": 7021,
      "Ġtech": 7022,
      "Ġcues": 7023,
      "Ġine": 7024,
      "Ġtour": 7025,
      "ste": 7026,
      "asion": 7027,
      "Ġlip": 7028,
      "Ġsuffic": 7029,
      "izz": 7030,
      "izon": 7031,
      "Ġdesk": 7032,
      "Ġdescent": 7033,
      "Ġjer": 7034,
      "Ġdecentral": 7035,
      "Ġesp": 7036,
      "Ġposed": 7037,
      "Ġcharacterizes": 7038,
      "Ġsurvi": 7039,
      "Ġfactoring": 7040,
      "limited": 7041,
      "balance": 7042,
      "Ġtheoretically": 7043,
      "Ġjoins": 7044,
      "Ġobserving": 7045,
      "Ġgeograph": 7046,
      "ometric": 7047,
      "Ġmultimodal": 7048,
      "Ġshorter": 7049,
      "Ġpopulations": 7050,
      "Ġmicroprocessors": 7051,
      "determinism": 7052,
      "Ġaffecting": 7053,
      "Ġopportunity": 7054,
      "Ġepis": 7055,
      "Ġintrusion": 7056,
      "Ġalphab": 7057,
      "burgh": 7058,
      "Ġpronunci": 7059,
      "ligible": 7060,
      "Ġsolely": 7061,
      "42": 7062,
      "69": 7063,
      "bc": 7064,
      "iency": 7065,
      "jective": 7066,
      "nes": 7067,
      "new": 7068,
      "Ġtur": 7069,
      "tis": 7070,
      "Ġple": 7071,
      "Ġprag": 7072,
      "Ġcn": 7073,
      "Ġder": 7074,
      "Ġprohib": 7075,
      "Ġnative": 7076,
      "Ġlighting": 7077,
      "Ġgold": 7078,
      "Ġmodest": 7079,
      "osph": 7080,
      "Ġlooking": 7081,
      "Ġattract": 7082,
      "Ġguess": 7083,
      "eady": 7084,
      "Ġcontextual": 7085,
      "ordered": 7086,
      "Ġtemporally": 7087,
      "oked": 7088,
      "Ġtranslating": 7089,
      "Ġelementary": 7090,
      "Ġchecked": 7091,
      "Ġtargets": 7092,
      "Ġargued": 7093,
      "Ġcameras": 7094,
      "Ġconcludes": 7095,
      "Ġtelecommunic": 7096,
      "Ġcommitte": 7097,
      "maxim": 7098,
      "Ġelabor": 7099,
      "Ġmpi": 7100,
      "join": 7101,
      "Ġremoving": 7102,
      "Ġdialogs": 7103,
      "Ġsynthesize": 7104,
      "semantic": 7105,
      "Ġontologies": 7106,
      "Ġreproduction": 7107,
      "Ġphrase": 7108,
      "Ġtrend": 7109,
      "Ġsigmoid": 7110,
      "Ġsubstitution": 7111,
      "Ġamerica": 7112,
      "Ġethernet": 7113,
      "bre": 7114,
      "eep": 7115,
      "otion": 7116,
      "satis": 7117,
      "Ġrom": 7118,
      "tible": 7119,
      "Ġcd": 7120,
      "Ġcipher": 7121,
      "ission": 7122,
      "Ġinvalid": 7123,
      "Ġmist": 7124,
      "Ġtouch": 7125,
      "Ġhot": 7126,
      "Ġhull": 7127,
      "unct": 7128,
      "Ġgas": 7129,
      "eline": 7130,
      "Ġvast": 7131,
      "sities": 7132,
      "Ġperman": 7133,
      "that": 7134,
      "duc": 7135,
      "Ġcovers": 7136,
      "Ġeffic": 7137,
      "Ġtimely": 7138,
      "Ġvariational": 7139,
      "dep": 7140,
      "ught": 7141,
      "Ġ2000": 7142,
      "Ġviable": 7143,
      "Ġaccounts": 7144,
      "akes": 7145,
      "Ġuc": 7146,
      "Ġsequencing": 7147,
      "Ġmechanics": 7148,
      "Ġkept": 7149,
      "avy": 7150,
      "Ġlowest": 7151,
      "Ġinterests": 7152,
      "Ġutilized": 7153,
      "Ġretrieved": 7154,
      "Ġoccup": 7155,
      "Ġtries": 7156,
      "Ġcurv": 7157,
      "Ġsurveys": 7158,
      "Ġlookup": 7159,
      "Ġconjugate": 7160,
      "Ġformulae": 7161,
      "Ġrationale": 7162,
      "Ġextensibility": 7163,
      "organization": 7164,
      "Ġdefaults": 7165,
      "Ġbehave": 7166,
      "Ġreveals": 7167,
      "Ġcolumn": 7168,
      "Ġoccurrences": 7169,
      "65": 7170,
      "602": 7171,
      "dest": 7172,
      "matic": 7173,
      "Ġ?": 7174,
      "erving": 7175,
      "orical": 7176,
      "stage": 7177,
      "Ġstress": 7178,
      "Ġstop": 7179,
      "Ġstock": 7180,
      "formal": 7181,
      "Ġrisc": 7182,
      "Ġarc": 7183,
      "Ġscore": 7184,
      "Ġdetector": 7185,
      "Ġdecade": 7186,
      "Ġmeets": 7187,
      "rong": 7188,
      "Ġsections": 7189,
      "Ġnone": 7190,
      "Ġesc": 7191,
      "Ġamenable": 7192,
      "Ġpredicts": 7193,
      "Ġconnect": 7194,
      "scri": 7195,
      "Ġmaximization": 7196,
      "Ġcoordinated": 7197,
      "Ġtargeted": 7198,
      "Ġaffects": 7199,
      "application": 7200,
      "Ġenterpr": 7201,
      "Ġ1986": 7202,
      "Ġreviews": 7203,
      "Ġmanipulator": 7204,
      "Ġslice": 7205,
      "Ġrecovering": 7206,
      "similarity": 7207,
      "Ġeducational": 7208,
      "evolutionary": 7209,
      "warz": 7210,
      "Ġreprint": 7211,
      "Ġinconsistency": 7212,
      "Ġisrael": 7213,
      "Ġmellon": 7214,
      "Ġbrowsers": 7215,
      "ao": 7216,
      "bayes": 7217,
      "field": 7218,
      "Ġtack": 7219,
      "Ġaa": 7220,
      "Ġpvs": 7221,
      "isp": 7222,
      "Ġhp": 7223,
      "Ġconferencing": 7224,
      "odic": 7225,
      "ilation": 7226,
      "Ġimpose": 7227,
      "Ġseven": 7228,
      "licate": 7229,
      "ends": 7230,
      "ief": 7231,
      "Ġlocated": 7232,
      "Ġdelive": 7233,
      "Ġconnecting": 7234,
      "Ġlearnable": 7235,
      "Ġinvestigator": 7236,
      "Ġinsu": 7237,
      "Ġargues": 7238,
      "Ġappropriately": 7239,
      "Ġfourth": 7240,
      "Ġcalculated": 7241,
      "interactive": 7242,
      "Ġincoming": 7243,
      "Ġexplained": 7244,
      "Ġcolorado": 7245,
      "Ġremoved": 7246,
      "Ġcomprehen": 7247,
      "Ġacknowledgment": 7248,
      "drafts": 7249,
      "Ġasymmetric": 7250,
      "engineering": 7251,
      "Ġintrinsic": 7252,
      "Ġdecentralized": 7253,
      "Ġdelivered": 7254,
      "]).": 7255,
      "bb": 7256,
      "lag": 7257,
      "overs": 7258,
      "zero": 7259,
      "Ġtab": 7260,
      "inity": 7261,
      "Ġpan": 7262,
      "alge": 7263,
      "eder": 7264,
      "Ġdu": 7265,
      "Ġdro": 7266,
      "Ġbodies": 7267,
      "Ġnfs": 7268,
      "Ġgrate": 7269,
      "Ġasc": 7270,
      "Ġintro": 7271,
      "Ġ(\"\"": 7272,
      "Ġmodal": 7273,
      "Ġrsa": 7274,
      "Ġmosa": 7275,
      "Ġkn": 7276,
      "Ġkle": 7277,
      "Ġksr": 7278,
      "Ġprem": 7279,
      "atization": 7280,
      "Ġcommunities": 7281,
      "Ġobjectoriented": 7282,
      "Ġoutcome": 7283,
      "Ġvisually": 7284,
      "Ġlatent": 7285,
      "Ġsynchronized": 7286,
      "Ġfaced": 7287,
      "Ġassociate": 7288,
      "Ġindividually": 7289,
      "Ġcollap": 7290,
      "Ġcheckpoints": 7291,
      "Ġrefinements": 7292,
      "Ġfrequencies": 7293,
      "Ġsubstrate": 7294,
      "Ġreplay": 7295,
      "Ġsoundness": 7296,
      "Ġmagnetic": 7297,
      "Ġtransparently": 7298,
      "Ġrelaxd": 7299,
      "Ġepip": 7300,
      "Ġmillion": 7301,
      "Ġbank": 7302,
      "Ġspringer": 7303,
      "Ġhuge": 7304,
      "Ġredistribution": 7305,
      "Ġtitle": 7306,
      "preserving": 7307,
      "Ġbucket": 7308,
      "Ġefficacy": 7309,
      "evol": 7310,
      "ium": 7311,
      "squ": 7312,
      "sets": 7313,
      "wave": 7314,
      "Ġly": 7315,
      "Ġud": 7316,
      "Ġcum": 7317,
      "stone": 7318,
      "ulner": 7319,
      "Ġund": 7320,
      "Ġlect": 7321,
      "Ġleaves": 7322,
      "Ġkal": 7323,
      "Ġprogressive": 7324,
      "Ġarrang": 7325,
      "Ġrecall": 7326,
      "Ġanalytically": 7327,
      "Ġampl": 7328,
      "Ġcharacterizations": 7329,
      "Ġflight": 7330,
      "Ġlattices": 7331,
      "Ġfailed": 7332,
      "Ġalternate": 7333,
      "Ġexploitation": 7334,
      "Ġ64": 7335,
      "Ġentity": 7336,
      "Ġextracts": 7337,
      "Ġdetectors": 7338,
      "Ġtransportation": 7339,
      "Ġpopularity": 7340,
      "what": 7341,
      "Ġcorrelations": 7342,
      "Ġinvest": 7343,
      "Ġreflects": 7344,
      "Ġslowdown": 7345,
      "Ġpermissions": 7346,
      "Ġcorpora": 7347,
      "Ġaux": 7348,
      "Ġconstitu": 7349,
      "diskip": 7350,
      "Ġbidirectional": 7351,
      "Ġproximity": 7352,
      "Ġunpredictable": 7353,
      "Ġsnapsh": 7354,
      "Ġinsufficient": 7355,
      "34": 7356,
      "aws": 7357,
      "hierarch": 7358,
      "ka": 7359,
      "med": 7360,
      "rig": 7361,
      "Ġsr": 7362,
      "Ġpin": 7363,
      "ales": 7364,
      "edge": 7365,
      "Ġanti": 7366,
      "Ġmas": 7367,
      "Ġball": 7368,
      "Ġbug": 7369,
      "Ġreject": 7370,
      "Ġlap": 7371,
      "Ġvs": 7372,
      "Ġvulner": 7373,
      "Ġresist": 7374,
      "Ġlemma": 7375,
      "ortex": 7376,
      "ading": 7377,
      "Ġexpense": 7378,
      "ustering": 7379,
      "Ġnontrivial": 7380,
      "Ġautomate": 7381,
      "ractical": 7382,
      "Ġheavy": 7383,
      "Ġfaculty": 7384,
      "Ġconvert": 7385,
      "Ġconverges": 7386,
      "Ġbackbone": 7387,
      "Ġallocate": 7388,
      "Ġquantization": 7389,
      "Ġgray": 7390,
      "Ġsimplest": 7391,
      "complexity": 7392,
      "meas": 7393,
      "Ġiteratively": 7394,
      "coup": 7395,
      "Ġblind": 7396,
      "Ġcmos": 7397,
      "Ġreached": 7398,
      "Ġsuggestions": 7399,
      "Ġpipelining": 7400,
      "threaded": 7401,
      "Ġeigenvalue": 7402,
      "experim": 7403,
      "Ġnarrow": 7404,
      "Ġbipartite": 7405,
      "Ġuniprocessor": 7406,
      "Ġpersistence": 7407,
      "Ġfabric": 7408,
      "bolic": 7409,
      "lass": 7410,
      "my": 7411,
      "Ġsizing": 7412,
      "Ġpy": 7413,
      "Ġcsp": 7414,
      "Ġdsp": 7415,
      "Ġmip": 7416,
      "Ġbrough": 7417,
      "char": 7418,
      "Ġebl": 7419,
      "Ġweighting": 7420,
      "idel": 7421,
      "Ġpersp": 7422,
      "licative": 7423,
      "Ġsupply": 7424,
      "Ġworth": 7425,
      "Ġraises": 7426,
      "Ġapproximates": 7427,
      "Ġgeographic": 7428,
      "Ġcloser": 7429,
      "Ġsucceed": 7430,
      "Ġbelieved": 7431,
      "Ġdocumentation": 7432,
      "Ġfunded": 7433,
      "Ġavoided": 7434,
      "Ġcausality": 7435,
      "Ġcalculate": 7436,
      "Ġsatisfact": 7437,
      "Ġnormally": 7438,
      "itized": 7439,
      "Ġreceives": 7440,
      "computation": 7441,
      "Ġperceived": 7442,
      "Ġlifetime": 7443,
      "Ġexpanded": 7444,
      "Ġaliasing": 7445,
      "Ġreformulation": 7446,
      "Ġsubsumption": 7447,
      "Ġmoment": 7448,
      "Ġverifier": 7449,
      "Ġdrawbacks": 7450,
      "Ġbesides": 7451,
      "cache": 7452,
      "Ġinadequate": 7453,
      "latency": 7454,
      "source": 7455,
      "Ġshortcomings": 7456,
      "Ġbrought": 7457,
      "--": 7458,
      "bd": 7459,
      "can": 7460,
      "coded": 7461,
      "linary": 7462,
      "port": 7463,
      "rates": 7464,
      "sum": 7465,
      "syn": 7466,
      "sense": 7467,
      "Ġult": 7468,
      "Ġfran": 7469,
      "Ġmi": 7470,
      "Ġbol": 7471,
      "strateg": 7472,
      "astically": 7473,
      "uses": 7474,
      "Ġhmm": 7475,
      "Ġalter": 7476,
      "Ġexerc": 7477,
      "Ġsteady": 7478,
      "sey": 7479,
      "Ġpaging": 7480,
      "occ": 7481,
      "add": 7482,
      "Ġends": 7483,
      "Ġkar": 7484,
      "vide": 7485,
      "Ġnewly": 7486,
      "Ġdiskard": 7487,
      "exist": 7488,
      "Ġrelates": 7489,
      "cyc": 7490,
      "Ġjitter": 7491,
      "Ġsubspace": 7492,
      "Ġdomin": 7493,
      "conditions": 7494,
      "Ġparty": 7495,
      "ubic": 7496,
      "Ġretrieving": 7497,
      "Ġoccasion": 7498,
      "Ġindicating": 7499,
      "Ġreceptive": 7500,
      "Ġassigning": 7501,
      "Ġstopping": 7502,
      "30602": 7503,
      "Ġelse": 7504,
      "iliary": 7505,
      "Ġderivative": 7506,
      "Ġimperfect": 7507,
      "Ġreproduce": 7508,
      "door": 7509,
      "Ġbursty": 7510,
      "Ġdeformable": 7511,
      "Ġbeginning": 7512,
      "Ġpermutations": 7513,
      "Ġmultithreading": 7514,
      "correcting": 7515,
      "Ġpatient": 7516,
      "Ġscript": 7517,
      "Ġgigabit": 7518,
      "switched": 7519,
      "Ġdissipation": 7520,
      "depth": 7521,
      "algebra": 7522,
      "eu": 7523,
      "event": 7524,
      "Ġthings": 7525,
      "tives": 7526,
      "Ġpspace": 7527,
      "Ġcul": 7528,
      "Ġcos": 7529,
      "attle": 7530,
      "Ġinlining": 7531,
      "sto": 7532,
      "static": 7533,
      "che": 7534,
      "Ġeeg": 7535,
      "version": 7536,
      "Ġstated": 7537,
      "Ġvoting": 7538,
      "amless": 7539,
      "Ġdeformation": 7540,
      "Ġsho": 7541,
      "Ġunic": 7542,
      "Ġunable": 7543,
      "Ġcanada": 7544,
      "Ġchild": 7545,
      "Ġcoinc": 7546,
      "Ġtimest": 7547,
      "Ġmultigrid": 7548,
      "Ġoptimizers": 7549,
      "Ġdetects": 7550,
      "Ġimbalance": 7551,
      "Ġintegers": 7552,
      "plane": 7553,
      "Ġminima": 7554,
      "coming": 7555,
      "Ġmessaging": 7556,
      "Ġanalyzer": 7557,
      "Ġprime": 7558,
      "Ġnegligible": 7559,
      "sibly": 7560,
      "talk": 7561,
      "Ġpreserved": 7562,
      "Ġconjunctive": 7563,
      "Ġsuffix": 7564,
      "Ġsynthesizing": 7565,
      "Ġpolyhedra": 7566,
      "Ġdeformations": 7567,
      "Ġbarriers": 7568,
      "Ġmbone": 7569,
      "Ġtoronto": 7570,
      "Ġdevise": 7571,
      "Ġtuned": 7572,
      "Ġprecedence": 7573,
      "Ġsubgoals": 7574,
      "Ġstimul": 7575,
      "Ġmismatch": 7576,
      "Ġbootstrap": 7577,
      "frame": 7578,
      "44": 7579,
      ":\"": 7580,
      "even": 7581,
      "fc": 7582,
      "gas": 7583,
      "pled": 7584,
      "tech": 7585,
      "ysi": 7586,
      "zen": 7587,
      "Ġut": 7588,
      "Ġps": 7589,
      "Ġoo": 7590,
      "Ġbor": 7591,
      "change": 7592,
      "Ġnc": 7593,
      "Ġhide": 7594,
      "Ġlane": 7595,
      "Ġlfs": 7596,
      "Ġconve": 7597,
      "els": 7598,
      "ample": 7599,
      "osp": 7600,
      "Ġplacing": 7601,
      "Ġscr": 7602,
      "Ġsuboptimal": 7603,
      "Ġraised": 7604,
      "Ġrespond": 7605,
      "ysical": 7606,
      "Ġheight": 7607,
      "Ġstandards": 7608,
      "Ġprimal": 7609,
      "Ġiterated": 7610,
      "Ġorganize": 7611,
      "Ġmulticasting": 7612,
      "Ġfunding": 7613,
      "Ġcombinational": 7614,
      "Ġcustomers": 7615,
      "classification": 7616,
      "Ġvolumes": 7617,
      "Ġmultiplicative": 7618,
      "explo": 7619,
      "Ġignored": 7620,
      "normal": 7621,
      "Ġprofessor": 7622,
      "Ġanomal": 7623,
      "Ġmonths": 7624,
      "Ġamortized": 7625,
      "Ġauxiliary": 7626,
      "diskiplinary": 7627,
      "%.\"": 7628,
      "''": 7629,
      "615": 7630,
      "aper": 7631,
      "code": 7632,
      "life": 7633,
      "mapped": 7634,
      "plex": 7635,
      "rich": 7636,
      "Ġ_": 7637,
      "Ġthre": 7638,
      "tile": 7639,
      "tiveness": 7640,
      "Ġson": 7641,
      "Ġpcs": 7642,
      "Ġcy": 7643,
      "routing": 7644,
      "itary": 7645,
      "Ġbib": 7646,
      "channel": 7647,
      "Ġgave": 7648,
      "Ġgps": 7649,
      "ury": 7650,
      "ctu": 7651,
      "Ġasocs": 7652,
      "Ġvend": 7653,
      "Ġsprite": 7654,
      "Ġspars": 7655,
      "Ġseamless": 7656,
      "ignment": 7657,
      "antine": 7658,
      "Ġmetac": 7659,
      "Ġchun": 7660,
      "Ġclassifications": 7661,
      "Ġclassroom": 7662,
      "Ġsolvable": 7663,
      "Ġprotect": 7664,
      "develop": 7665,
      "Ġrealizing": 7666,
      "Ġ26": 7667,
      "Ġcomplexities": 7668,
      "Ġoutlined": 7669,
      "Ġsequent": 7670,
      "Ġrace": 7671,
      "convex": 7672,
      "Ġfax": 7673,
      "avail": 7674,
      "cla": 7675,
      "index": 7676,
      "Ġinterpreters": 7677,
      "Ġstreet": 7678,
      "Ġtrials": 7679,
      "Ġearth": 7680,
      "Ġcritic": 7681,
      "Ġpredictors": 7682,
      "Ġacquiring": 7683,
      "recur": 7684,
      "Ġdebugger": 7685,
      "Ġhtml": 7686,
      "Ġdenote": 7687,
      "Ġsock": 7688,
      "Ġassistance": 7689,
      "Ġdecreases": 7690,
      "Ġlateral": 7691,
      "Ġauction": 7692,
      "Ġtrusted": 7693,
      "rupted": 7694,
      "Ġmarginal": 7695,
      "Ġhorizon": 7696,
      "Ġphilosophy": 7697,
      "two": 7698,
      "group": 7699,
      "restric": 7700,
      "Ġsacrificing": 7701,
      "Ġeuropean": 7702,
      "Ġgathered": 7703,
      "Ġpragmatic": 7704,
      "but": 7705,
      "cis": 7706,
      "gical": 7707,
      "iencies": 7708,
      "well": 7709,
      "Ġtsp": 7710,
      "roll": 7711,
      "atable": 7712,
      "Ġinhib": 7713,
      "Ġwall": 7714,
      "Ġpros": 7715,
      "utgers": 7716,
      "uned": 7717,
      "urate": 7718,
      "Ġunited": 7719,
      "ocular": 7720,
      "ads": 7721,
      "Ġkol": 7722,
      "aren": 7723,
      "Ġintervention": 7724,
      "Ġprev": 7725,
      "Ġincurred": 7726,
      "Ġvaried": 7727,
      "pleteness": 7728,
      "Ġnonmonotonic": 7729,
      "partition": 7730,
      "Ġsampled": 7731,
      "conquer": 7732,
      "Ġadapts": 7733,
      "ameter": 7734,
      "Ġabstracting": 7735,
      "Ġvisit": 7736,
      "Ġimportantly": 7737,
      "Ġmeanings": 7738,
      "Ġqr": 7739,
      "Ġactors": 7740,
      "Ġsituated": 7741,
      "Ġrobustly": 7742,
      "Ġindexes": 7743,
      "Ġelectro": 7744,
      "Ġ``": 7745,
      "liers": 7746,
      "Ġreplacing": 7747,
      "Ġaxis": 7748,
      "Ġemergence": 7749,
      "Ġinformal": 7750,
      "Ġlegacy": 7751,
      "33615": 7752,
      "Ġclaims": 7753,
      "motion": 7754,
      "Ġfpgas": 7755,
      "Ġstriping": 7756,
      "Ġdispatch": 7757,
      "Ġtuple": 7758,
      "rusted": 7759,
      "Ġchemical": 7760,
      "digy": 7761,
      "combining": 7762,
      "Ġudp": 7763,
      "Ġperspectives": 7764,
      "56": 7765,
      "73": 7766,
      "good": 7767,
      "np": 7768,
      "Ġtang": 7769,
      "ened": 7770,
      "Ġfits": 7771,
      "Ġdam": 7772,
      "Ġmere": 7773,
      "Ġband": 7774,
      "Ġprodigy": 7775,
      "etric": 7776,
      "rained": 7777,
      "Ġlate": 7778,
      "Ġgal": 7779,
      "oles": 7780,
      "Ġvdm": 7781,
      "Ġitem": 7782,
      "Ġimply": 7783,
      "Ġimplication": 7784,
      "Ġshe": 7785,
      "Ġunreliable": 7786,
      "uming": 7787,
      "rule": 7788,
      "anta": 7789,
      "Ġinterru": 7790,
      "Ġschwarz": 7791,
      "exec": 7792,
      "Ġjunction": 7793,
      "Ġ23": 7794,
      "Ġmatter": 7795,
      "Ġoutcomes": 7796,
      "Ġregularities": 7797,
      "Ġpartly": 7798,
      "Ġclustered": 7799,
      "Ġresponsive": 7800,
      "Ġprojections": 7801,
      "Ġrenaming": 7802,
      "Ġcooperate": 7803,
      "Ġhypermedia": 7804,
      "competitive": 7805,
      "Ġsafely": 7806,
      "Ġfluctu": 7807,
      "Ġresolving": 7808,
      "Ġeditors": 7809,
      "parameter": 7810,
      "guided": 7811,
      "Ġeducation": 7812,
      "priority": 7813,
      "',": 7814,
      "((": 7815,
      "fo": 7816,
      "pat": 7817,
      "vability": 7818,
      "Ġast": 7819,
      "intern": 7820,
      "Ġcil": 7821,
      "ites": 7822,
      "chang": 7823,
      "Ġlas": 7824,
      "olis": 7825,
      "eld": 7826,
      "Ġdisplace": 7827,
      "Ġrhod": 7828,
      "Ġcancer": 7829,
      "Ġconting": 7830,
      "Ġadver": 7831,
      "Ġchess": 7832,
      "Ġmultilayer": 7833,
      "Ġcommod": 7834,
      "iques": 7835,
      "ipe": 7836,
      "Ġclassic": 7837,
      "onstrained": 7838,
      "Ġschemata": 7839,
      "Ġbutter": 7840,
      "Ġautomating": 7841,
      "Ġsmp": 7842,
      "Ġcalling": 7843,
      "Ġregim": 7844,
      "Ġlogically": 7845,
      "Ġbaseline": 7846,
      "Ġsingular": 7847,
      "Ġformalized": 7848,
      "Ġhierarchically": 7849,
      "Ġsecondly": 7850,
      "Ġallocating": 7851,
      "Ġrefers": 7852,
      "Ġquantities": 7853,
      "Ġselects": 7854,
      "Ġeliminated": 7855,
      "Ġunconstrained": 7856,
      "Ġautonomy": 7857,
      "Ġregularity": 7858,
      "obile": 7859,
      "Ġmanipulated": 7860,
      "recogn": 7861,
      "Ġforwarding": 7862,
      "Ġannotation": 7863,
      "automated": 7864,
      "Ġshifts": 7865,
      "Ġserializability": 7866,
      "Ġtagging": 7867,
      "Ġdeleg": 7868,
      "Ġconstitute": 7869,
      "Ġmusic": 7870,
      "Ġjudg": 7871,
      "Ġpricing": 7872,
      "Ġfavorably": 7873,
      "method": 7874,
      "Ġstabilization": 7875,
      "Ġattached": 7876,
      "Ġdiskonnected": 7877,
      "Ġaustin": 7878,
      "Ġmetaphor": 7879,
      "Ġexcessive": 7880,
      "Ġdesktop": 7881,
      "destination": 7882,
      "restricted": 7883,
      "100": 7884,
      "55": 7885,
      "bro": 7886,
      "cil": 7887,
      "flo": 7888,
      "ival": 7889,
      "site": 7890,
      "wa": 7891,
      "Ġctl": 7892,
      "endi": 7893,
      "lew": 7894,
      "Ġrelying": 7895,
      "Ġeg": 7896,
      "Ġnt": 7897,
      "vered": 7898,
      "Ġlp": 7899,
      "Ġles": 7900,
      "Ġ([": 7901,
      "Ġundirected": 7902,
      "Ġmoun": 7903,
      "erson": 7904,
      "Ġcovered": 7905,
      "Ġtechnological": 7906,
      "Ġabilities": 7907,
      "vian": 7908,
      "Ġscop": 7909,
      "exact": 7910,
      "Ġdistributing": 7911,
      "Ġdecay": 7912,
      "Ġcommunicative": 7913,
      "Ġemulation": 7914,
      "Ġaccum": 7915,
      "values": 7916,
      "Ġdominant": 7917,
      "Ġconstrain": 7918,
      "Ġupmail": 7919,
      "Ġsequentially": 7920,
      "Ġdelta": 7921,
      "Ġguard": 7922,
      "Ġderives": 7923,
      "Ġtextures": 7924,
      "Ġpriors": 7925,
      "Ġconverse": 7926,
      "Ġcopied": 7927,
      "Ġtrial": 7928,
      "Ġreader": 7929,
      "scalable": 7930,
      "Ġmonitors": 7931,
      "Ġdiagonal": 7932,
      "Ġarticles": 7933,
      "web": 7934,
      "Ġexpectations": 7935,
      "Ġsends": 7936,
      "Ġmusical": 7937,
      "Ġjustify": 7938,
      "integrating": 7939,
      "Ġchaos": 7940,
      "Ġambiguity": 7941,
      "Ġtuples": 7942,
      "Ġperturbation": 7943,
      "Ġnominal": 7944,
      "Ġmalicious": 7945,
      "Ġepipolar": 7946,
      "08": 7947,
      ":.": 7948,
      "aided": 7949,
      "bn": 7950,
      "bus": 7951,
      "dds": 7952,
      "hen": 7953,
      "hoc": 7954,
      "mode": 7955,
      "uing": 7956,
      "vary": 7957,
      "Ġtc": 7958,
      "once": 7959,
      "tiary": 7960,
      "Ġpal": 7961,
      "Ġolap": 7962,
      "enet": 7963,
      "Ġfm": 7964,
      "Ġmr": 7965,
      "Ġmcc": 7966,
      "lections": 7967,
      "Ġbp": 7968,
      "Ġbread": 7969,
      "Ġrev": 7970,
      "Ġreact": 7971,
      "Ġhal": 7972,
      "person": 7973,
      "ida": 7974,
      "ider": 7975,
      "mented": 7976,
      "Ġbear": 7977,
      "Ġvbr": 7978,
      "Ġdefic": 7979,
      "Ġpare": 7980,
      "Ġspent": 7981,
      "Ġunst": 7982,
      "Ġchrom": 7983,
      "apes": 7984,
      "Ġscatter": 7985,
      "Ġtransmitted": 7986,
      "Ġoverfitting": 7987,
      "Ġsimd": 7988,
      "Ġsupplied": 7989,
      "Ġmemo": 7990,
      "ours": 7991,
      "Ġyour": 7992,
      "Ġviewpoints": 7993,
      "Ġfastest": 7994,
      "gets": 7995,
      "anned": 7996,
      "Ġvirtually": 7997,
      "operative": 7998,
      "Ġadaptively": 7999,
      "Ġsuggesting": 8000,
      "Ġ++": 8001,
      "Ġconventions": 8002,
      "Ġrefining": 8003,
      "Ġatmosph": 8004,
      "Ġliveness": 8005,
      "Ġcollecting": 8006,
      "Ġmagic": 8007,
      "Ġanimations": 8008,
      "Ġconflicting": 8009,
      "Ġmutually": 8010,
      "uzz": 8011,
      "Ġguaranteeing": 8012,
      "Ġharder": 8013,
      "Ġdiskriminant": 8014,
      "Ġfigures": 8015,
      "Ġdecomposing": 8016,
      "Ġproxies": 8017,
      "Ġpressure": 8018,
      "Ġrectangular": 8019,
      "possibly": 8020,
      "Ġabductive": 8021,
      "Ġhazard": 8022,
      "Ġacademic": 8023,
      "Ġdigraphs": 8024,
      "Ġskelet": 8025,
      "Ġmosaic": 8026,
      "Ġrhodos": 8027,
      "__": 8028,
      "earch": 8029,
      "fi": 8030,
      "ience": 8031,
      "page": 8032,
      "zantine": 8033,
      "Ġtion": 8034,
      "Ġari": 8035,
      "Ġfan": 8036,
      "Ġmid": 8037,
      "Ġbad": 8038,
      "Ġtoken": 8039,
      "eth": 8040,
      "Ġforced": 8041,
      "Ġlic": 8042,
      "Ġiso": 8043,
      "Ġdisser": 8044,
      "Ġimposes": 8045,
      "thesis": 8046,
      "Ġshares": 8047,
      "Ġmoved": 8048,
      "activity": 8049,
      "Ġkb": 8050,
      "Ġdataow": 8051,
      "tery": 8052,
      "Ġgenerative": 8053,
      "Ġproblematic": 8054,
      "sole": 8055,
      "Ġspecies": 8056,
      "lexible": 8057,
      "dsm": 8058,
      "parts": 8059,
      "opic": 8060,
      "Ġrad": 8061,
      "Ġtertiary": 8062,
      "Ġdescript": 8063,
      "Ġprincipled": 8064,
      "suited": 8065,
      "playing": 8066,
      "Ġweakly": 8067,
      "Ġcampus": 8068,
      "computed": 8069,
      "Ġrecursively": 8070,
      "Ġmixing": 8071,
      "Ġcapacities": 8072,
      "Ġtriangle": 8073,
      "Ġguiding": 8074,
      "generation": 8075,
      "Ġparticipant": 8076,
      "Ġstacks": 8077,
      "Ġcourses": 8078,
      "Ġboxes": 8079,
      "Ġmathematically": 8080,
      "Ġranges": 8081,
      "Ġpermitting": 8082,
      "Ġcontinues": 8083,
      "Ġburstiness": 8084,
      "Ġcatalog": 8085,
      "Ġinterleaving": 8086,
      "Ġgrasping": 8087,
      "Ġmentioned": 8088,
      "Ġrarely": 8089,
      "Ġproductivity": 8090,
      "Ġesprit": 8091,
      "Ġcurvature": 8092,
      "strategy": 8093,
      "recursive": 8094,
      "82": 8095,
      "cbr": 8096,
      "dist": 8097,
      "fm": 8098,
      "jan": 8099,
      "ovian": 8100,
      "pub": 8101,
      "rp": 8102,
      "td": 8103,
      "tor": 8104,
      "Ġtiling": 8105,
      "Ġcps": 8106,
      "Ġfd": 8107,
      "Ġinacc": 8108,
      "Ġwast": 8109,
      "arable": 8110,
      "Ġusable": 8111,
      "thing": 8112,
      "Ġenorm": 8113,
      "Ġadmit": 8114,
      "Ġclin": 8115,
      "Ġpreferred": 8116,
      "intellig": 8117,
      "atile": 8118,
      "virt": 8119,
      "finding": 8120,
      "Ġpatch": 8121,
      "product": 8122,
      "Ġdiskussing": 8123,
      "Ġmanagers": 8124,
      "abilistic": 8125,
      "missible": 8126,
      "Ġsteam": 8127,
      "scrib": 8128,
      "Ġbroker": 8129,
      "Ġconceptually": 8130,
      "Ġchooses": 8131,
      "Ġpriorities": 8132,
      "Ġterminal": 8133,
      "relation": 8134,
      "Ġbroader": 8135,
      "urrence": 8136,
      "Ġestablishes": 8137,
      "Ġautonomously": 8138,
      "Ġinterconnected": 8139,
      "Ġreviewed": 8140,
      "Ġpairwise": 8141,
      "neighb": 8142,
      "ystems": 8143,
      "Ġfreely": 8144,
      "Ġsoccer": 8145,
      "Ġlandmarks": 8146,
      "systems": 8147,
      "Ġmulticomputers": 8148,
      "issue": 8149,
      "Ġinversion": 8150,
      "Ġbisection": 8151,
      "implementing": 8152,
      "Ġoodb": 8153,
      "Ġsilicon": 8154,
      "filll": 8155,
      "Ġundecidable": 8156,
      "Ġdisadvantages": 8157,
      "Ġfirewall": 8158,
      "Ġalphabet": 8159,
      "Ġcommittee": 8160,
      "Ġpermanent": 8161,
      "Ġsatisfactory": 8162,
      "Ġcommodity": 8163,
      "varying": 8164,
      "Ġbreadth": 8165,
      "Ġdissertation": 8166,
      "Ġenormous": 8167,
      "()": 8168,
      "lan": 8169,
      "oom": 8170,
      "oia": 8171,
      "trip": 8172,
      "input": 8173,
      "Ġdb": 8174,
      "Ġmen": 8175,
      "Ġben": 8176,
      "Ġproves": 8177,
      "image": 8178,
      "Ġln": 8179,
      "Ġcond": 8180,
      "ilton": 8181,
      "Ġcompound": 8182,
      "ifor": 8183,
      "Ġdevised": 8184,
      "Ġspite": 8185,
      "Ġleaf": 8186,
      "Ġperformances": 8187,
      "Ġroots": 8188,
      "Ġplant": 8189,
      "Ġtwice": 8190,
      "Ġnoti": 8191,
      "Ġprote": 8192,
      "Ġprotected": 8193,
      "Ġissued": 8194,
      "Ġmarkets": 8195,
      "Ġdegener": 8196,
      "Ġherein": 8197,
      "Ġrestrictive": 8198,
      "relations": 8199,
      "Ġbiases": 8200,
      "Ġtracks": 8201,
      "Ġincorporation": 8202,
      "Ġpublications": 8203,
      "Ġestablishment": 8204,
      "Ġpasses": 8205,
      "Ġcontracts": 8206,
      "Ġcontradic": 8207,
      "Ġpositioning": 8208,
      "Ġpiv": 8209,
      "Ġcorporate": 8210,
      "Ġcoherency": 8211,
      "Ġcognition": 8212,
      "Ġdownload": 8213,
      "Ġderivations": 8214,
      "Ġisolate": 8215,
      "Ġdeletion": 8216,
      "Ġsalient": 8217,
      "Ġconstitutes": 8218,
      "Ġchaotic": 8219,
      "Ġrecorded": 8220,
      "polynomial": 8221,
      "Ġbagging": 8222,
      "Ġhistograms": 8223,
      "Ġsubproblems": 8224,
      "probabilistic": 8225,
      "ancies": 8226,
      "labeled": 8227,
      "Ġenterprise": 8228,
      "Ġlecture": 8229,
      "coupled": 8230,
      "Ġscratch": 8231,
      "Ġcilk": 8232,
      "virtual": 8233,
      "aved": 8234,
      "gam": 8235,
      "mc": 8236,
      "rin": 8237,
      "Ġtape": 8238,
      "ina": 8239,
      "Ġtherm": 8240,
      "Ġsgi": 8241,
      "Ġprices": 8242,
      "Ġcoded": 8243,
      "Ġol": 8244,
      "ester": 8245,
      "Ġdan": 8246,
      "ani": 8247,
      "arm": 8248,
      "ecutive": 8249,
      "unay": 8250,
      "Ġintl": 8251,
      "gered": 8252,
      "Ġvor": 8253,
      "Ġvic": 8254,
      "Ġpaid": 8255,
      "aby": 8256,
      "Ġdise": 8257,
      "ogen": 8258,
      "Ġgenome": 8259,
      "Ġpredefined": 8260,
      "ionics": 8261,
      "Ġoptimizes": 8262,
      "othing": 8263,
      "Ġauto": 8264,
      "Ġcorre": 8265,
      "Ġ27": 8266,
      "Ġconsecutive": 8267,
      "ibly": 8268,
      "Ġucla": 8269,
      "Ġsurround": 8270,
      "ians": 8271,
      "Ġexperienced": 8272,
      "Ġindicated": 8273,
      "shared": 8274,
      "gery": 8275,
      "1993": 8276,
      "1994": 8277,
      "Ġordinal": 8278,
      "embles": 8279,
      "Ġstarted": 8280,
      "Ġanalogical": 8281,
      "Ġinvent": 8282,
      "Ġunlikely": 8283,
      "Ġ128": 8284,
      "038": 8285,
      "Ġdestinations": 8286,
      "Ġcarrying": 8287,
      "Ġviolations": 8288,
      "Ġphoneme": 8289,
      "Ġinstantiation": 8290,
      "Ġretaining": 8291,
      "tzmann": 8292,
      "Ġadjacent": 8293,
      "Ġuntrusted": 8294,
      "global": 8295,
      "Ġaaai": 8296,
      "evolving": 8297,
      "rigid": 8298,
      "algebraic": 8299,
      "exploiting": 8300,
      "Ġbutterfly": 8301,
      "aunay": 8302,
      "date": 8303,
      "iant": 8304,
      "lit": 8305,
      "oint": 8306,
      "sign": 8307,
      "uous": 8308,
      "vas": 8309,
      "onen": 8310,
      "oral": 8311,
      "Ġce": 8312,
      "ingly": 8313,
      "Ġdol": 8314,
      "ank": 8315,
      "Ġreaction": 8316,
      "Ġecl": 8317,
      "etf": 8318,
      "Ġgam": 8319,
      "Ġusaf": 8320,
      "Ġstations": 8321,
      "separ": 8322,
      "Ġreset": 8323,
      "Ġleaving": 8324,
      "Ġcontrary": 8325,
      "ades": 8326,
      "Ġenforce": 8327,
      "Ġker": 8328,
      "Ġworkspace": 8329,
      "Ġspeculation": 8330,
      "Ġforming": 8331,
      "Ġsubtask": 8332,
      "Ġaccounting": 8333,
      "luded": 8334,
      "Ġoutliers": 8335,
      "istry": 8336,
      "Ġprobably": 8337,
      "Ġdelaunay": 8338,
      "compar": 8339,
      "overing": 8340,
      "Ġvisualize": 8341,
      "Ġcreative": 8342,
      "Ġtemper": 8343,
      "rying": 8344,
      "Ġfulfilll": 8345,
      "Ġconverting": 8346,
      "Ġswizz": 8347,
      "Ġformulating": 8348,
      "Ġconfigured": 8349,
      "195": 8350,
      "Ġdrafts": 8351,
      "Ġessence": 8352,
      "Ġtransferred": 8353,
      "optimizing": 8354,
      "Ġ77": 8355,
      "casting": 8356,
      "Ġdisplayed": 8357,
      "Ġaccompan": 8358,
      "++,": 8359,
      "Ġexplains": 8360,
      "Ġsounds": 8361,
      "Ġstreaming": 8362,
      "Ġassessing": 8363,
      "Ġemerge": 8364,
      "Ġspeaking": 8365,
      "Ġdecomposed": 8366,
      "Ġreplica": 8367,
      "Ġjanus": 8368,
      "robust": 8369,
      "Ġlandsc": 8370,
      "toward": 8371,
      "Ġjustification": 8372,
      "Ġapi": 8373,
      "Ġtunnel": 8374,
      "functional": 8375,
      "evaluating": 8376,
      "Ġpetri": 8377,
      "Ġurl": 8378,
      "Ġdiego": 8379,
      "Ġrome": 8380,
      "Ġkalman": 8381,
      "hierarchical": 8382,
      "endix": 8383,
      "neighbor": 8384,
      ",\"": 8385,
      "38": 8386,
      "39": 8387,
      "fail": 8388,
      "ipping": 8389,
      "mb": 8390,
      "nat": 8391,
      "nell": 8392,
      "win": 8393,
      "Ġtalk": 8394,
      "inality": 8395,
      "reason": 8396,
      "orth": 8397,
      "Ġpom": 8398,
      "estim": 8399,
      "atom": 8400,
      "Ġinner": 8401,
      "Ġmerg": 8402,
      "Ġelev": 8403,
      "Ġnuc": 8404,
      "Ġhaptic": 8405,
      "Ġlr": 8406,
      "emens": 8407,
      "Ġcomposing": 8408,
      "Ġwhite": 8409,
      "Ġbyte": 8410,
      "Ġparen": 8411,
      "Ġmaster": 8412,
      "accept": 8413,
      "Ġarcs": 8414,
      "Ġoverly": 8415,
      "Ġovercomes": 8416,
      "Ġparallelized": 8417,
      "Ġknows": 8418,
      "Ġlogp": 8419,
      "Ġsequoia": 8420,
      "Ġavionics": 8421,
      "Ġprobing": 8422,
      "Ġinducing": 8423,
      "Ġcontinually": 8424,
      "Ġendow": 8425,
      "relational": 8426,
      "Ġgrain": 8427,
      "Ġtransparen": 8428,
      "connection": 8429,
      "Ġdiagn": 8430,
      "Ġpredictability": 8431,
      "Ġradio": 8432,
      "Ġuncertainties": 8433,
      "parallelism": 8434,
      "Ġseeks": 8435,
      "Ġbroadcasting": 8436,
      "Ġdrawings": 8437,
      "Ġrationality": 8438,
      "Ġburden": 8439,
      "Ġemphasize": 8440,
      "Ġpiece": 8441,
      "Ġepist": 8442,
      "Ġshading": 8443,
      "Ġdispatching": 8444,
      "Ġexceeds": 8445,
      "testing": 8446,
      "stationary": 8447,
      "Ġhistogram": 8448,
      "Ġhamilton": 8449,
      "Ġpitts": 8450,
      "Ġatoms": 8451,
      "Ġintentions": 8452,
      "Ġalleviate": 8453,
      "bayesian": 8454,
      "Ġboltzmann": 8455,
      "Ġconvey": 8456,
      "Ġanomalies": 8457,
      "496": 8458,
      "fd": 8459,
      "fp": 8460,
      "fol": 8461,
      "hop": 8462,
      "main": 8463,
      "oning": 8464,
      "onent": 8465,
      "orandom": 8466,
      "Ġped": 8467,
      "Ġwrong": 8468,
      "Ġmur": 8469,
      "Ġba": 8470,
      "Ġbpp": 8471,
      "Ġblo": 8472,
      "Ġnine": 8473,
      "radi": 8474,
      "Ġlg": 8475,
      "verlag": 8476,
      "ilient": 8477,
      "ids": 8478,
      "Ġcompli": 8479,
      "Ġassis": 8480,
      "Ġvon": 8481,
      "Ġunrestricted": 8482,
      "Ġcoin": 8483,
      "Ġcovariance": 8484,
      "Ġsoon": 8485,
      "Ġprogramd": 8486,
      "Ġtrading": 8487,
      "Ġtraverse": 8488,
      "Ġrecording": 8489,
      "Ġrecovered": 8490,
      "Ġvertical": 8491,
      "Ġcortical": 8492,
      "Ġreasoner": 8493,
      "Ġadvent": 8494,
      "Ġcharge": 8495,
      "Ġmanaged": 8496,
      "Ġpointing": 8497,
      "Ġvisualizing": 8498,
      "avoid": 8499,
      "Ġmont": 8500,
      "Ġcontinuity": 8501,
      "logic": 8502,
      "Ġblocked": 8503,
      "Ġtrip": 8504,
      "Ġquantified": 8505,
      "1992": 8506,
      "1995": 8507,
      "Ġmission": 8508,
      "Ġlossless": 8509,
      "Ġcopyright": 8510,
      "Ġcustomization": 8511,
      "continu": 8512,
      "Ġdrivers": 8513,
      "Ġexplaining": 8514,
      "Ġ*-": 8515,
      "Ġregarded": 8516,
      "Ġinvariance": 8517,
      "Ġaxiomatization": 8518,
      "Ġpolyhedron": 8519,
      "color": 8520,
      "Ġranked": 8521,
      "Ġfixpoint": 8522,
      "Ġinferring": 8523,
      "Ġmorphing": 8524,
      "Ġhundred": 8525,
      "Ġsubclasses": 8526,
      "Ġenforced": 8527,
      "Ġsiemens": 8528,
      "matrix": 8529,
      "simple": 8530,
      "Ġinstantaneous": 8531,
      "Ġarrangement": 8532,
      "video": 8533,
      "available": 8534,
      "Ġmerely": 8535,
      "Ġlicense": 8536,
      "ael": 8537,
      "aff": 8538,
      "etical": 8539,
      "fre": 8540,
      "hl": 8541,
      "hou": 8542,
      "sure": 8543,
      "window": 8544,
      "Ġtune": 8545,
      "Ġodd": 8546,
      "Ġdab": 8547,
      "Ġbsp": 8548,
      "Ġreally": 8549,
      "Ġwearable": 8550,
      "unov": 8551,
      "resour": 8552,
      "ilbert": 8553,
      "igan": 8554,
      "Ġusability": 8555,
      "Ġstory": 8556,
      "Ġbyzantine": 8557,
      "ampl": 8558,
      "Ġspir": 8559,
      "Ġimpul": 8560,
      "Ġuniqu": 8561,
      "Ġseed": 8562,
      "Ġenvelop": 8563,
      "acm": 8564,
      "Ġinterf": 8565,
      "due": 8566,
      "dual": 8567,
      "agents": 8568,
      "Ġpresentations": 8569,
      "Ġprep": 8570,
      "Ġmultilingual": 8571,
      "Ġscores": 8572,
      "Ġparallelize": 8573,
      "idefinite": 8574,
      "Ġagree": 8575,
      "Ġjump": 8576,
      "atibility": 8577,
      "Ġ28": 8578,
      "Ġ29": 8579,
      "Ġmini": 8580,
      "Ġexplosion": 8581,
      "Ġhands": 8582,
      "prec": 8583,
      "Ġpractically": 8584,
      "Ġpacking": 8585,
      "Ġutilities": 8586,
      "standard": 8587,
      "Ġcenters": 8588,
      "Ġconverted": 8589,
      "Ġassociations": 8590,
      "Ġbandwidths": 8591,
      "Ġcheckers": 8592,
      "Ġsuitability": 8593,
      "Ġaffinity": 8594,
      "Ġhelping": 8595,
      "Ġattempting": 8596,
      "asticity": 8597,
      "erox": 8598,
      "large": 8599,
      "Ġvolumetric": 8600,
      "Ġdrives": 8601,
      "Ġreachable": 8602,
      "centric": 8603,
      "herence": 8604,
      "Ġreconc": 8605,
      "Ġdiffering": 8606,
      "Ġspeakers": 8607,
      "Ġinfluenced": 8608,
      "Ġquantitatively": 8609,
      "Ġstringent": 8610,
      "Ġadequately": 8611,
      "buff": 8612,
      "weighted": 8613,
      "Ġreplicas": 8614,
      "Ġdelivering": 8615,
      "Ġproportion": 8616,
      "feature": 8617,
      "Ġencapsulation": 8618,
      "minimal": 8619,
      "biased": 8620,
      "Ġmoments": 8621,
      "Ġcompensate": 8622,
      "Ġwalks": 8623,
      "Ġmcmc": 8624,
      "Ġclimbing": 8625,
      "Ġcascade": 8626,
      "architecture": 8627,
      "Ġcomprehensible": 8628,
      "Ġculling": 8629,
      "Ġprevents": 8630,
      "Ġatmospheric": 8631,
      "47": 8632,
      "64": 8633,
      "bench": 8634,
      "lif": 8635,
      "mits": 8636,
      "matching": 8637,
      "rights": 8638,
      "van": 8639,
      "Ġ^": 8640,
      "Ġalew": 8641,
      "Ġthom": 8642,
      "Ġthink": 8643,
      "error": 8644,
      "Ġcb": 8645,
      "rog": 8646,
      "Ġfeder": 8647,
      "stain": 8648,
      "cher": 8649,
      "Ġni": 8650,
      "Ġforth": 8651,
      "unc": 8652,
      "Ġgaps": 8653,
      "pert": 8654,
      "seg": 8655,
      "Ġsustain": 8656,
      "Ġrh": 8657,
      "Ġdatag": 8658,
      "Ġseattle": 8659,
      "Ġenjo": 8660,
      "Ġcoins": 8661,
      "Ġtranscription": 8662,
      "inting": 8663,
      "Ġsolar": 8664,
      "Ġservo": 8665,
      "Ġimag": 8666,
      "ermark": 8667,
      "Ġgoes": 8668,
      "lude": 8669,
      "ferenced": 8670,
      "Ġinstruct": 8671,
      "Ġraces": 8672,
      "Ġrabin": 8673,
      "Ġpolylog": 8674,
      "Ġdefinite": 8675,
      "Ġcharacters": 8676,
      "oney": 8677,
      "Ġlocalized": 8678,
      "Ġflor": 8679,
      "Ġevolves": 8680,
      "Ġbrok": 8681,
      "Ġloading": 8682,
      "Ġsupercomputer": 8683,
      "Ġzoom": 8684,
      "Ġseparated": 8685,
      "variable": 8686,
      "Ġtracked": 8687,
      "insensitive": 8688,
      "Ġcriti": 8689,
      "Ġhyperc": 8690,
      "Ġcopyrights": 8691,
      "Ġ70": 8692,
      "lived": 8693,
      "obser": 8694,
      "computational": 8695,
      "Ġarticulated": 8696,
      "context": 8697,
      "Ġqualitatively": 8698,
      "Ġcryptos": 8699,
      "Ġparticipating": 8700,
      "Ġinitiative": 8701,
      "Ġdenot": 8702,
      "Ġneighbors": 8703,
      "Ġconsuming": 8704,
      "Ġinformative": 8705,
      "Ġsummarized": 8706,
      "Ġconcentrated": 8707,
      "Ġinteroperation": 8708,
      "Ġreproduced": 8709,
      "Ġpictures": 8710,
      "Ġteacher": 8711,
      "consuming": 8712,
      "Ġtorus": 8713,
      "Ġangle": 8714,
      "Ġreconstructed": 8715,
      "Ġcardinality": 8716,
      "Ġinterleaved": 8717,
      "Ġenforcing": 8718,
      "Ġpreemptive": 8719,
      "Ġquantifier": 8720,
      "Ġmodulo": 8721,
      "Ġembod": 8722,
      "Ġsubroutine": 8723,
      "Ġisomorphism": 8724,
      "Ġjacobian": 8725,
      "Ġprohibitive": 8726,
      "Ġmistakes": 8727,
      "Ġalewife": 8728,
      "66": 8729,
      "apping": 8730,
      "dy": 8731,
      "ebl": 8732,
      "mal": 8733,
      "oi": 8734,
      "sms": 8735,
      "some": 8736,
      "Ġtell": 8737,
      "onau": 8738,
      "era": 8739,
      "Ġsld": 8740,
      "Ġfc": 8741,
      "Ġfract": 8742,
      "Ġdile": 8743,
      "Ġwam": 8744,
      "Ġbir": 8745,
      "Ġtok": 8746,
      "store": 8747,
      "cha": 8748,
      "Ġnull": 8749,
      "eton": 8750,
      "Ġha": 8751,
      "Ġconvolution": 8752,
      "Ġgod": 8753,
      "Ġappendix": 8754,
      "lov": 8755,
      "Ġrights": 8756,
      "Ġundo": 8757,
      "ewidth": 8758,
      "Ġmoti": 8759,
      "Ġours": 8760,
      "Ġtrail": 8761,
      "Ġtransist": 8762,
      "soft": 8763,
      "interest": 8764,
      "Ġverbs": 8765,
      "Ġplanned": 8766,
      "Ġvibr": 8767,
      "split": 8768,
      "Ġparticles": 8769,
      "lected": 8770,
      "Ġdependability": 8771,
      "ounter": 8772,
      "preem": 8773,
      "preliminary": 8774,
      "Ġresultant": 8775,
      "Ġmaximizes": 8776,
      "Ġengineer": 8777,
      "Ġcentered": 8778,
      "Ġlongest": 8779,
[...]
